#version: 0.2
Ġ t
Ġ a
h e
i n
r e
Ġt he
o n
e r
Ġ o
a t
Ġ s
e n
Ġ c
Ġ w
e s
i s
n d
i t
o r
Ġ p
a l
Ġ b
e d
a n
Ġo f
Ġ f
in g
Ġ in
o u
a r
Ġ m
Ġa nd
Ġt o
i c
Ġ d
i on
l e
r o
a s
Ġ h
en t
Ġt h
c t
Ġ e
i l
Ġ re
o m
v e
Ġ l
s t
Ġ n
l y
Ġb e
â Ģ
Ġ is
Ġ T
s e
o l
Ġ g
at ion
i m
i d
e t
u t
o t
c e
u r
r a
c h
o w
Ġ A
Ġf or
i g
Ġ u
Ġth at
Ġ on
Ġ S
Ġs t
v er
Ġ y
Ġ I
i r
Ġ C
u l
a y
a m
Ġa s
it h
e l
a d
Ġp ro
he r
Ġa re
Ġc on
Ġa n
Ġw ith
Ġy ou
i f
Ġw h
Ġ it
Ġo r
Ġa l
o d
t er
Ġ M
ĠT he
Ġ (
m ent
g e
Ġ P
t h
Ġ 1
o p
at e
is t
er s
Ġd e
i es
il l
Ġ he
es s
a b
Ġ B
Ġe x
u s
Ġw e
e ct
o re
âĢ Ļ
Ġc om
Ġs u
it y
a c
es t
re s
i ve
Ġh a
u m
Ġ H
ro m
l d
Ġ v
o s
k e
Ġb y
an t
e m
q u
i v
a in
Ġ W
n t
Ġa t
p p
ig h
Ġc an
Ġw as
Ġ D
u d
Ġf rom
Ġc h
Ġ E
o c
a nd
Ġ r
or t
Ġ R
Ġn e
Ġ F
Ġs e
i al
u re
Ġ 2
Ġ âĢ
Ġn ot
u n
Ġ le
ic al
ar t
Ġ G
Ġha ve
Ġ N
r i
o g
Ġ L
Ġs h
Ġ en
Ġth is
Ġs p
Ġa b
p t
igh t
r ou
ic h
Ġw or
re d
al l
t her
ion s
ou ld
o st
g h
T he
om e
0 0
ou r
d u
Ġ im
at ed
Ġu s
in e
p er
Ġp l
ou t
a g
ar d
Ġthe ir
el l
id e
a ct
f f
Ġin t
an s
Ġ O
as t
p l
e ar
a ge
a k
u st
Ġyou r
Ġwh ich
Ġ k
Ġw he
Ġthe y
e c
Ġ J
ou s
i z
o od
Ġ U
Ġal l
ul t
Ġa d
Ġw ill
i b
Ġcon t
Ġin c
ĠI n
en d
c c
Ġd is
r u
Ġm ore
âĢ Ŀ
on g
a p
Ġcom p
Ġre s
i a
i p
ve l
Ġh as
ation s
e w
e re
s o
Ġd o
or m
at er
ar y
ĠT h
ab le
il d
en ce
a re
Ġm an
Ġo ther
Ġc l
u al
k s
Ġb ut
Ġwe re
r y
in d
e p
Ġt e
Ġp er
ent s
Ġm e
Ġim p
ĠâĢ ľ
a ch
Ġon e
Ġal so
an ce
re at
o se
ig n
a ke
res s
' s
as s
as e
a u
a v
Ġs o
Ġ1 9
ct ion
it ion
Ġ j
Ġo ut
ic e
on e
Ġa r
im e
Ġu n
ver y
Ġa pp
b er
Ġp art
Ġab out
Ġst ud
or d
Ġe v
a ce
or y
en s
o k
ac k
is h
Ġwh o
ou nt
am e
i re
ĠS t
Ġp e
Ġin f
) .
Ġh is
Ġs y
Ġthe m
u e
Ġcom m
or s
u b
it e
c es
Ġs c
i ke
Ġ K
an g
re e
ou nd
n ow
ol og
l ow
ĠI t
Ġbe c
Ġu p
Ġp re
i e
Ġm ay
Ġ qu
Ġ "
r ic
Ġth an
i le
if f
op le
Ġs ome
ay s
ĠC h
Ġre c
Ġy ear
a il
Ġbe en
at es
Ġthe re
Ġwhe n
i an
nd er
ing s
Ġit s
ou gh
Ġint o
Ġg o
m er
Ġa g
Ġt ime
re n
Ġt ra
Ġwor k
ĠTh is
p h
t e
Ġo ver
r it
Ġthe se
er v
ver s
Ġpe ople
on s
Ġd iff
Ġh ow
al ly
Ġ2 0
rou gh
Ġ V
l ud
au se
Ġu se
Ġ ro
Ġcon s
on d
Ġo ur
Ġt r
m s
Ġc ol
ter n
l l
Ġ ra
o ve
Ġh ad
if ic
Ġa ct
Ġbe t
Ġ 3
w e
Ġm ost
in t
Ġk now
Ġl ike
Ġu nder
it ies
al th
y s
Ġb l
ir st
l ic
ment s
Ġd es
le ct
j ect
n ing
Ġw ould
o ok
i ous
l es
Ġs a
Ġa cc
Ġ Y
ro w
vel op
st em
Ġne ed
Ġre l
Ġt w
Ġsu ch
Ġne w
ff ect
Ġ if
Ġre p
Ġch ild
Ġan y
Ġg en
Ġhe l
Ġinc lud
i ent
o b
ation al
ul ar
c ess
at ive
Ġwh at
p le
y p
he d
Ġus ed
Ġhel p
c ed
Ġon ly
o ol
at ing
Ġp h
Ġp r
Ġpro du
o v
Ġpro v
Ġman y
Ġin d
Ġn o
Ġa m
Ġde velop
Ġth rough
) ,
Ġof f
Ġf irst
Ġf e
ĠU n
Ġsp ec
f ter
at h
Ġre g
os s
Ġa c
rou nd
Ġd i
u c
ar k
is e
ic s
Ġp o
et h
Ġex p
Ġe m
er m
ri b
he n
f ul
ur ing
ot h
Ġsy stem
in k
Ġtw o
t s
Ġdiff ere
n e
is s
ol d
Ġo b
Ġas s
il ity
al s
ro p
Ġde c
ib le
as ed
Ġad d
Ġat t
ĠâĢ ĵ
t en
Ġs ur
if e
Ġsh ould
an ge
ĠH e
u res
Ġ -
er t
f ore
ow er
I n
Ġw ell
b le
ar ch
a w
Ġw ater
we en
Ġf l
ra m
ra ct
Ġsu pp
n g
Ġre m
Ġin v
Ġsu b
Ġyear s
ow n
se l
Ġ20 1
Ġc o
ad e
g an
Ġhe alth
i ed
Ġbet ween
Ġs m
Ġ2 00
he s
Ġp res
Ġh igh
Ġ 4
ut ion
it s
c y
Ġc ould
Ġwhe re
e ver
ic k
Ġtr ans
Ġm ake
w n
il y
u ch
x t
Ġg et
ch ool
s s
ant s
Ġ 5
Ġb u
olog y
Ġimp ort
Ġp ers
ch n
f orm
ur al
Ġin ter
id ent
Ġ her
Ġre se
Ġe ar
i ence
it ed
Ġfor m
t ing
Ġm od
i et
Ġin st
Ġn um
mer ic
Ġp ol
l and
in s
in es
Ġex am
Ġdis c
on t
Ġdiffere nt
Ġf ound
h at
Ġle ar
ic t
Ġbec ause
e f
ist s
ual ly
Ġs im
Ġa fter
g y
Ġthe n
at a
Ġl ar
n ess
Ġex per
Ġc ar
Ġl ong
Ġe ffect
Ġev en
Ġ very
Ġwor ld
Ġj ust
Ġm ed
f t
Ġw ay
ce pt
is m
Ġinc re
Ġc ent
Ġt yp
Ġd et
Ġh um
ur n
Ġinf orm
o y
at ure
ot her
ak ing
Ġ ed
g et
Ġres p
Ġse e
Ġc ount
ical ly
Ġ1 8
Ġ ke
iv es
v ent
i vers
ĠA meric
Ġs ign
Ġre f
ol low
Ġth ose
Ġv ar
Ġgen er
i ew
Ġpro g
Ġp at
Ġe very
Ġex t
c er
Ġc all
Ġchild ren
ar m
om m
Ġres ult
c k
Ġs oc
Ġpro cess
Ġp ub
Ġbe ing
Ġf act
as es
Ġe ach
p s
u es
l ed
Ġsa id
Ġl oc
Ġse c
. âĢĿ
Ġg ra
od y
d s
t le
ru ct
ir on
Ġc a
Ġimport ant
Ġte chn
Ġl ife
Ġpart ic
Ġre qu
ag es
T h
Ġs et
. .
or k
ĠA l
ĠW e
Ġd ist
Ġm uch
Ġcomm un
Ġm y
Ġar t
Ġm on
Ġc re
Ġf am
Ġs he
at her
Ġde p
Ġde f
Ġf ood
Ġstud ents
im es
iz ed
Ġd uring
Ġo wn
Ġ ent
v ed
ĠP ro
Ġf ollow
ver n
c ent
Ġinform ation
ĠThe y
Ġre ad
w ard
Ġle vel
Ġle ad
ic es
ĠA s
Ġr ight
Ġm ade
g g
Ġs k
Ġs ame
Ġdo es
Ġa ut
ĠR e
Ġstud y
an y
ect ion
iz e
Ġpro ble
Ġf ind
h ip
Ġg row
Ġpers on
i o
Ġd ata
Ġc ur
Ġ 6
Ġs chool
Ġg ood
Ġa v
ĠI f
t he
Ġm in
Ġb ack
Ġen d
t ed
Ġin s
Ġb oth
Ġst r
Ġc he
al e
ĠA n
on om
ĠF or
u nd
Ġus ing
v iron
Ġp op
Ġg rou
Ġcomp le
Ġbe fore
al ity
Ġsh ow
Ġh ist
Ġsm all
. ,
st and
Ġg l
Ġex pl
ĠA r
Ġc or
ial ly
1 9
iv id
re ad
om en
ĠH ow
Ġm ain
Ġt reat
in al
Ġof ten
Ġt est
Ġag ain
t y
i el
in ed
in ce
Ġpro t
ar s
Ġb o
d er
ro l
Ġl ess
oc k
Ġb r
n ce
er gy
Ġp oss
Ġs ol
2 0
Ġwh ile
| |
Ġv al
ĠI nd
Ġdis e
e x
im ate
Ġd ay
Ġc ell
i x
Ġt ake
is hed
ut e
Ġst ate
00 0
Ġl it
ĠS p
ak es
a x
Ġh im
Ġn ow
Ġs erv
o h
i en
Ġm em
Ġo cc
Ġnum ber
Ġf un
r al
Ġb ody
Ġe c
Ġv is
viron ment
d ition
ĠN ew
i er
Ġrese arch
Ġr is
id es
Ġp ower
ul ation
Ġhum an
Ġor gan
i qu
Ġact iv
ire ct
iet y
Ġdes ign
Ġch ar
ur y
u p
a ir
iv ing
Ġcl ass
Ġbe l
ivers ity
e red
Ġa round
Ġ1 0
a h
Ġha nd
Ġm ust
v es
Ġsupp ort
Ġd own
Ġre du
ĠS c
Ġth ree
ter s
Ġl ook
Ġcomm on
i um
Ġcon f
her s
us s
it al
Ġst art
v en
g er
Ġ est
a ve
Ġc le
Ġg reat
a j
d ay
Ġpo int
re nt
Ġe lect
Ġd id
Th is
Ġ 7
ain s
Ġpl an
Ġs er
Ġgo vern
v ing
act er
Ġlar ge
ou se
ro ss
ĠB ut
Ġl and
ra in
sel f
c l
Ġexam ple
g en
âĢ Ķ
Ġrep ort
Ġc are
Ġcont in
ĠY ou
c om
Ġo p
Ġall ow
r on
Ġ 8
it ions
ion al
ul l
Ġinclud ing
Ġcon st
ĠThe re
or n
Ġth ough
e e
, âĢĿ
a red
an c
as h
Ġunder stand
e g
Ġe qu
w ay
Ġc our
Ġbu ild
Ġed uc
Ġw rit
Ġre t
Ġs om
Ġm et
Ġad v
Ġcall ed
Ġd r
ĠA nd
iv en
i ver
Ġp ract
ou th
Ġst ill
ater ial
Ġbe h
ĠâĢ ĺ
Ġknow n
el s
n er
ivid ual
Ġqu est
Ġth ink
Ġe as
i red
Ġpub lic
Ġ ide
ere st
re en
om s
id s
Ġg u
i od
Ġpl ace
ent ial
ĠI s
os ed
oc i
in c
Ġapp ro
ect ed
Ġf ew
Ġm ight
id er
âĢ ľ
Ġ 9
d e
1 0
r ies
âĢ ĵ
Ġm at
our ces
iz ation
it ive
an k
in ation
Ġpres ent
et s
Ġst and
Ġw ant
Ġen ergy
ĠThe se
ĠW h
Ġde m
Ġen vironment
Ġch ang
. "
b ers
en g
en se
r ation
Ġca us
l ish
eth od
Ġwith in
ra ph
Ġp ur
Ġprodu ct
m e
Ġwith out
ou n
Ġind ividual
pt ion
Ġis s
i or
Ġch ange
as on
ert ain
Ġdevelop ment
ord ing
iv ed
Ġpl ay
Ġt em
Ġsy m
ff ic
t t
Ġ19 9
Ġph ys
es p
Ġm aterial
Ġim m
ĠE ng
Ġpro ject
Ġlear n
Ġd on
ĠUn iversity
Ġimp ro
l ine
Ġdise ase
Ġ ident
are nt
Ġc ap
ĠD e
er al
al k
Ġb en
ang u
Ġp ot
Ġd irect
m an
Ġa ir
Ġs it
i ans
l ess
Ġpro f
Ġm us
Ġp os
Ġw omen
Ġ &
s c
Ġan other
Ġl ight
Ġ ve
Ġb re
Ġs l
Ġp ass
in ess
Ġare a
ĠAmeric an
ag n
Ġsoc ial
ent al
or th
Ġbel ie
ab ility
Ġh ome
Ġen g
olog ical
Ġl aw
Ġme as
Ġinclud e
ĠC on
Ġint erest
ill ion
Ġb est
aj or
Ġc ult
Ġbl ood
b s
if ied
t on
Ġb as
Ġdes c
Ġp ain
p r
iel d
er c
Ġe t
er ing
Ġan t
ro du
if y
u g
I t
at ural
Ġcont rol
ain ed
at ic
Ġre st
Ġm ark
Ġris k
at s
Ġm ethod
ent ly
Ġbec ome
cc ess
Ġo pp
Ġan al
w ays
Ġse ver
Ġhe re
' t
i k
ĠHow ever
Ġprog ram
a z
Ġan im
Ġo ld
ĠA d
Ġl ow
ĠP h
Ġm ove
g in
our ce
Ġbet ter
is ion
Ġpro per
Ġle g
h or
Ġec onom
ill s
Ġear ly
Ġgovern ment
r ist
Ġp ar
in ing
l ished
ĠS h
Ġm il
er n
Ġke ep
Ġagain st
Ġw ar
Ġto o
t o
he re
Ġe le
st r
ar c
ra p
Ġre al
Ġf ore
ic le
Ġor der
w are
Ġprov ide
Ġl ast
Ġme ans
e ad
Ġt re
Ġsec ond
Ġav ail
e ed
Ġo per
Ġc ause
Ġt er
or ies
Ġhist ory
ent ion
ard s
Ġgrou p
Ġfam ily
Ġm ajor
i ents
Ġocc ur
iss ion
Ġpartic ular
Ġposs ible
Ġper form
Ġu nt
ĠR es
Ġto p
am p
l u
Ġcur rent
Ġde v
ĠW hen
Ġsever al
ĠUn ited
pl es
v iew
u se
Ġs ay
Ġlear ning
Ġf in
Ġinv ol
Ġin du
Ġadd ition
p ect
is ed
Ġper iod
Ġspec ies
ĠC l
Ġab le
og raph
ot e
p ar
ir c
ĠE x
Ġme an
Ġsa f
o id
Ġne ar
Ġben ef
Ġper cent
ĠâĢ Ķ
Ġor ig
Ġc al
og n
in a
Ġha pp
Ġm en
Ġe l
Ġh ig
ĠC ol
Ġ1 5
Ġth ings
Ġpro m
Ġop en
Ġc r
Ġl angu
id ence
ĠG od
Ġn on
Ġm ar
Ġ [
Ġa ffect
ĠP l
Ġfe el
an e
W hat
re t
Ġb us
Ġl im
Ġs ince
Ġ .
Ġpl ant
Ġother s
Ġc ost
b r
ĠT o
th ough
Ġare as
Ġsign ific
Ġam ong
at or
u rop
il ar
Ġf re
Ġtreat ment
os p
Ġsc ient
ĠC an
o f
Ġavail able
s y
Ġb ased
w w
end ed
am es
Ġt imes
p ort
Ġn ame
o le
Ġfollow ing
end s
Ġ Z
Ġhe ad
ĠC omm
Ġf ac
Ġcount ry
Ġ Q
ĠS e
Ġf our
ot s
om p
ĠSt ates
oc us
Ġacc ess
Ġc ertain
Ġc ase
Ġpre vent
l ing
Ġs ays
Ġf ree
Ġcon d
ab ly
Ġcom e
el f
ur ther
Ġp ost
Ġwe e
c ing
ĠA t
an ces
ress ion
un e
Ġa ge
Ġd el
Ġproble m
Ġl o
Ġst ruct
Ġl ist
Ġob ject
Ġr un
Ġtyp e
Ġcon n
Ġcell s
Ġc reat
Ġv iew
o x
id ed
, "
Ġmon th
Ġl ab
Ġb i
Ġp ress
b e
Ġn atural
a per
Ġre ce
W e
Ġg r
h y
Ġ1 7
Ġloc al
o int
Ġb ro
op e
Ġp ut
Ġproble ms
Ġlit tle
st it
Ġsu ccess
urop e
pl oy
Ġin tern
Ġh ard
on es
Ġv ol
Ġlevel s
res ent
ic ult
Ġb ir
eth ing
Ġass oci
I f
Ġam ount
ĠC ent
gg est
Ġyou ng
Ġle t
ĠE n
Ġ1 2
Ġf low
Ġunt il
Ġm aking
Ġb ook
ol ution
ĠT e
Ġ ess
Ġf ar
led ge
Ġl ater
w ork
Ġm ult
Ġimp act
it her
p or
ĠCh rist
ort un
ate ly
Ġt urn
1 8
Ġg iven
at ory
n ot
Ġsh ort
g ed
he m
Ġd ue
ic ation
o ks
Ġf ocus
Ġs w
Ġsignific ant
Ġse em
Ġdet erm
ut ure
ĠN ational
o ver
1 2
Ġfun ction
ĠB e
Ġch o
Ġbeh av
ure d
Ġsu ggest
Ġhe art
c le
_ _
ĠA f
Ġpol it
Ġcomp ut
Ġinv est
ap s
ĠE urope
ak en
ic ro
Ġv ir
Ġeduc ation
Ġsom ething
Ġc irc
Ġal ong
ĠO r
Ġd ays
ĠF r
Ġcom b
Ġte ac
Ġf il
Ġlike ly
age ment
Ġh y
ĠW hat
Ġal ways
ri ed
Ġsystem s
Ġcour se
Ġra d
ĠA ll
Ġcons ider
ĠO n
f ace
Ġus ually
Ġs ing
v ious
Ġcommun ity
or ld
Ġincre ase
Ġd ra
Ġapp ear
end ing
ĠU S
A s
ec ially
Ġcle ar
Ġb rain
Ġspec ific
Ġg ive
r ing
Ġre le
Ġtechn ology
Ġp ast
Ġde ath
Ġresult s
Ġcre ate
Ġ 0
Ġdiff icult
is c
Ġen c
Ġob s
Ġcons um
Ġto day
ap e
as ter
Ġlangu age
Ġp arent
Ġwor ds
Ġexper ience
Ġl ine
Ġdesc rib
Ġneed s
Ġ1 6
our s
Ġaut hor
The re
Ġsim ilar
oh n
Ġsp ace
Ġ $
et ic
n ed
as ing
Ġex ist
m in
Ġcond itions
a f
a pp
Ġcan cer
pt oms
Ġchar acter
ive ly
ĠS o
Ġwh y
Ġ ill
Ġcent ury
em ber
Ġpop ulation
Ġdisc uss
at ors
esp ecially
Ġe y
ĠM ed
H ow
id d
Ġab ove
ain ing
Ġbe gin
5 0
ru ction
Ġrec ord
rib ut
m it
ob al
Ġvar ious
Ġspec ial
Ġm illion
Ġne xt
Ġne cess
Ġf uture
Ġtem per
ore d
1 1
Ġm ov
Ġchang es
Ġ '
l er
iqu e
Ġas k
Ġd am
m ost
one y
Ġg re
Ġapp lic
Ġc rit
Ġwor ks
at ch
Ġto get
Ġtoget her
Ġac ross
S t
ĠB rit
Ġprof ess
ru g
ra y
Ġle ast
Ġhow ever
Ġt ry
il ities
i ation
Ġest ab
ĠB l
Ġresp ons
Ġpro p
Ġhig her
Ġs ide
Ġ er
Ġne ver
Ġk ind
Ġstr ong
sel ves
ate g
Ġrequ ire
Ġcount ries
b y
od e
ort s
s p
av es
Ġbus iness
Ġcomple te
om es
Ġle ft
Ġimpro ve
Ġto ol
Ġw ays
ĠE ar
Ġm ot
ĠAf ric
Ġt erm
y m
Ġwork ing
Ġen ough
Ġa way
is on
Ġpl ants
Ġ especially
Ġt ru
th ing
Ġke y
il t
am m
o ot
Ġche m
Ġeffect s
n al
om an
ac es
Ġc y
Ġrese arc
Ġgener al
ys is
f or
le t
s w
ar ing
du ct
ac y
Ġcol le
Ġs ens
Ġpat ients
Ġha ving
le ment
Ġsub ject
ac c
Ġf ull
ach ing
N A
Ġstud ies
Ġpr im
al f
i pp
Ġtyp es
Ġc ases
u ment
Ġst ep
a im
Ġknow ledge
al es
it ing
Ġn et
ĠG erm
i res
ĠW ar
Ġrel ations
Ġte am
Ġgo ing
h ing
Ġh ouse
Ġbec ame
Ġn orm
Ġ19 8
s ide
Ġrep resent
Ġacc ount
g es
ch ie
ist ic
Ġwhe ther
Ġ z
Ġm akes
u ed
Ġcon cer
ĠS ome
Ġinf lu
Ġsym ptoms
en cy
is ing
A n
Ġm ind
le y
a e
Ġre ason
ific ation
it or
Ġs elf
Ġg round
Ġro le
Ġphys ical
Ġf urther
ĠJ ohn
Ġprot ect
a pt
an n
Ġl ower
.. .
Ġquest ion
Ġo pt
ot t
read y
/ /
F or
Ġb ig
ĠW orld
Ġte xt
er y
un g
ĠG en
Ġc ity
Ġsu re
ĠEng lish
Ġpol ic
ĠO ne
ab les
Ġsu m
ĠL e
i ol
ĠW ith
Ġd ig
a ut
Ġprodu ction
Ġch all
Ġf und
Ġl ive
it es
ir d
ĠG o
at ures
Ġn ut
au gh
Ġp red
ed i
u nt
Ġgrou ps
Ġind ic
Ġactiv ities
Ġmod el
3 0
Ġsc ience
2 00
Ġe ff
Ġpartic ip
ere nce
re am
Ġ3 0
Ġactiv ity
Ġst ory
c ul
l o
Ġr ange
Ġto ward
ib ility
Ġval ue
Ġen s
Ġre ally
Ġse en
Ġst at
re l
b on
Ġres ources
ur ch
Ġgrow th
Ġw r
Ġl ot
et imes
u ation
: //
Ġbe low
Ġl oss
Ġd one
Ġproduct s
1 5
Ġal ready
Ġcl ose
Ġr ather
sy ch
ou ra
ver age
ĠTh at
ĠIn tern
Ġpot ential
Ġart icle
Ġwor d
Ġqu ality
os is
Ġs ite
Ġrec ogn
Ġdevelop ed
Ġoff ic
Ġe ither
es c
m ber
Ġtra dition
Ġw ind
ĠC ar
Ġp aper
Ġ1 4
1 6
Ġpro b
Ġne g
and s
f act
ip le
ĠHe alth
p ut
Ġem ploy
Ġsing le
ove red
Ġa chie
ra ms
ĠM ar
Ġf ield
Ġsk ills
Ġ ur
Ġph ot
le ep
Ġbuild ing
il s
W hen
Ġb at
Ġde g
Ġf all
Ġm ass
Ġev ent
Ġfl u
ĠI m
i am
ide red
ear ch
Ġiss ues
iv al
ĠA m
Ġs ource
Ġon ce
Ġredu ce
Ġab s
ĠT r
Ġcol lect
Ġf r
ĠG e
Ġacc ording
Ġfre qu
v al
ĠC al
Ġwho le
Ġindu st
ĠS he
E R
Ġn ational
Ġquest ions
Ġme et
Ġt aken
1 7
Ġin it
ur ity
Ġd rug
am in
Ġev idence
Ġr ate
ric t
ĠS y
ĠA b
Ġcon cept
ub lic
Ġmem bers
Ġsu n
Ġmed ical
Ġd om
Ġcl imate
ĠP r
Ġadd ress
Ġrel ig
Ġf ive
re ct
Ġsur face
ĠD r
u le
Ġwh ite
ĠN orth
Ġup on
iv il
Ġc ut
ffic ient
Ġdet ail
Ġf ail
Ġcons idered
Ġrec omm
Ġs ent
Ġw ide
Ġcre ated
Ġc ame
Ġn ature
Ġf ri
as k
ĠB y
Ġl iving
Ġpro te
iv ity
et er
ĠS outh
pl ic
Ġret urn
Ġto t
Ġobs erv
Ġs ize
Ġint rodu
1 3
âĢ ¦
Ġthem selves
ight s
Ġre d
f er
Ġassoci ated
ĠAmeric a
Ġan n
Ġpress ure
re me
ip s
Ġresearc hers
s h
ro ll
Ġpolit ical
Ġt ell
Ġd est
Ġs ound
et y
Ġh old
1 4
Ġst ress
ib r
Ġcan not
ĠA ss
Ġsim ple
ĠSt ud
op h
ut ions
ĠM ay
Ġp ay
ill ed
Ġanim als
Ġincre ased
Ġpract ice
e b
Ġdo ct
Ġ ver
ac ed
l ike
re g
Ġrel ated
ep end
Ġact ually
Ġmark et
Ġthough t
or g
Ġm icro
Ġopp ortun
Ġrequ ired
Ġstud ent
Ġhist or
Ġcomple x
Ġwee k
Ġunderstand ing
se qu
Ġad ult
Ġst ates
id ing
ĠA ust
Ġsk in
Ġl ay
Ġ19 7
Ġeffect ive
Ġrelations hip
Ġneed ed
our nal
Ġs al
C h
Ġab ility
Ġqu ick
ĠR ep
Ġeng ine
Ġf at
Ġfam il
Ġhealth y
Ġent ire
y n
Ġide a
Ġmaterial s
p ro
Ġcon dition
ĠM an
Ġgl obal
Ġsp e
en n
Ġm or
g ing
ag ing
Ġmain t
Ġcom es
Ġit self
Ġright s
Ġpur p
Ġdi et
Ġ1 3
en ing
Ġar g
er ve
o ber
Ġeconom ic
Ġprov ides
Ġpub lished
o on
Ġal most
it ud
Ġ =
Ġd oc
en ed
Ġexper ien
Ġm oney
Ġbl ack
Ġf ish
ag ed
ĠS oc
a i
ol ic
Ġd og
ed s
Ġpart s
ac ks
Ġan sw
Ġmod ern
art ment
. )
Ġo il
os es
Ġp ort
Ġp ath
um p
Ġav oid
ore s
us h
ra d
Ġex erc
ch an
Ġfact ors
g o
is es
ĠA ct
Ġman agement
Ġnecess ary
Ġass ess
h ib
Ġ vers
ly ing
Ġsu ff
A l
T o
ĠEar th
Ġserv ices
Ġ |
ve re
ne y
Ġto ok
Ġso il
y l
Ġwe ight
ĠY ork
m a
Ġparent s
it ary
p ly
Ġl ink
Ġre act
Ġar ch
en ces
u el
Ġh alf
Ġcol l
ĠD ep
Ġh tt
Ġmeas ure
Ġc at
Ġmonth s
Ġappro ach
Ġg as
Ġc op
b o
g est
S A
Y ou
Ġprodu ce
ut es
Ġpr iv
Ġbe gan
Ġb ar
row n
Ġ X
ĠG u
ĠH is
ur s
ap an
Ġar r
Ġpat tern
b ased
um e
Ġsu per
es e
ens ive
Ġe ver
Ġcon duct
Ġso ft
W h
Ġanal ysis
) :
Ġcl aim
Ġy et
Ġg reen
ol l
Ġreg ion
on se
iz ing
ir m
Ġpop ular
Ġcol or
Ġj ob
ĠC omp
Ġcomput er
ĠSt ate
m y
c ient
Ġ1 00
ĠH ist
Ġt ar
Ġthrough out
ict ion
us ion
Ġmed ic
Ġs ense
Ġst op
Ġperson al
Ġchem ical
Ġlit er
Ġreg ard
ĠD o
n ces
Ġfe ed
idd le
Ġthe rap
ĠC ont
Ġre pl
ab or
Ġr ul
Ġa ction
em pt
Ġf ire
ect ions
Ġf arm
ĠBrit ish
Ġread ing
ĠE m
ĠN e
Ġse par
Ġincre asing
Ġe mer
ĠJ ew
in ter
Ġpr inc
Ġt aking
Ġg e
ab it
Ġs leep
g ar
h old
cc ording
he t
Ġt alk
ĠC o
Ġs am
Ġsoc iety
Ġindividual s
Ġh ours
ĠA fter
uc k
Ġon line
Ġb ur
ic les
Ġrec ent
Ġ ut
er ous
Ġ5 0
ig ure
Ġ19 6
Ġwrit ing
Ġcont ent
Ġpre vious
Ġbehav ior
es tern
c hes
Ġbu ilt
ri pt
Ġlong er
Ġinter act
p id
Ġpos ition
z e
Ġshow s
Ġcle an
- -
Ġcomp any
Ġter ms
ast ic
em ic
Ġserv ice
" .
Ġstruct ure
Ġtot al
y le
ĠCan ad
Ġth ing
Ġs ix
E S
Ġenvironment al
it ation
Ġcon c
Ġmat ter
Ġindust ry
Ġtra ining
an ced
Ġin j
Ġdis ord
Ġsur v
Ġschool s
w h
Ġse x
Ġet c
Ġhe av
im ent
ul ations
min ist
Ġl a
Ġcont ain
l or
Ġcaus ed
ow s
Ġprov ided
ĠP e
Ġbre ak
Ġmean ing
Ġcont act
a ff
ĠJ apan
Ã ©
Ġche ck
Ġl ives
Ġdi agn
ĠWh ile
Ġbr ing
ful ly
Ġeas y
n s
Ġtra vel
land s
Ġs at
Ġdesign ed
Ġbenef its
Ġ2 5
rop ri
ren g
A T
ab et
ist ance
Ġhe at
ĠS chool
en e
ric ult
Ġv ide
Ġtru e
Ġsh own
Ġmus ic
ed eral
ail y
Ġmethod s
Ġac cept
Ġcaus es
Ġtemper ature
l t
ĠRes earch
in ary
ron ic
Ġinclud es
rough t
m b
ar r
Ġv iol
Ġvar iety
ĠN o
Ġb acter
is ter
m on
Ġf ru
Ġc e
h ood
Ġvar i
ve y
as c
ĠI I
Ġf em
st er
Ġsp read
Ġreg ular
Ġpos itive
Ġbelie ve
imate ly
Ġsaf e
Ġear th
at ives
Ġre v
c hed
Ġ19 4
Ġm ach
Ġrel ative
Ġ1 1
av ing
Ġcult ure
Ġsim ply
ist ics
Ġ Â
Ġprog rams
Ġa verage
Ġsom etimes
Ġw ild
Ġme chan
Ġe at
al ing
Ġp age
ar ies
Ġl if
Ġiss ue
Ġpre c
Ġtar get
Ġl ove
le x
Ġstand ard
ĠIn stit
l ight
Ġgre ater
d om
A R
Ġmove ment
Ġth reat
ĠS u
Ġl ed
Ġst e
ri or
u fact
Ġsub st
I D
n ers
Ġorig in
Ġresp onse
Ġcar bon
du c
Ġde ep
ad es
Ġus es
Ġex c
Ġs low
am ed
r ast
uc le
Ġresp ect
Ġhelp s
ren ch
os ition
n ew
k now
Ġinvol ved
ĠP ar
Ġdo ing
ĠInd ia
Ġdem on
Ġenc oura
Ġreport ed
Ġwrit ten
er ation
ac hes
Ġev ents
ĠK ing
ĠS ec
Ġfood s
Ġs ources
Ġf ace
ver se
Ġorig inal
B ut
Ġdam age
b an
Ġident ify
ar ily
Ġcomp et
Ġp ict
Ġp le
Ġpol l
ĠP res
Ġscient ists
Ġfor ms
Ġrem ov
Ġcomp an
u ge
ra nd
Ġem b
ct ions
Ġre view
ell ing
Ġim age
Ġnorm al
Ġl ack
end er
Ġout side
o or
eng th
ol es
Ġparticular ly
Ġbas ic
Ġst reng
Ġint eg
Ġimp lement
Ġp sych
ie f
Ġpo or
Ġref er
erv ation
op s
Ġsh are
Ġc amp
Ġw ood
Ġatt ention
um b
ial s
Ġdevelop ing
Ġmed ia
Ġb al
ĠAust ral
Ġcomp on
Ġfor ce
2 2
I N
Ġteac hers
ĠP er
ĠM in
Ġser ious
Ġfore st
ro om
Ġapp l
Ġess ential
Ġatt empt
r im
ac hed
Ġsu st
Ġwe bs
Ġprodu ced
Ġgener ally
is ions
Ġde b
Ġens ure
m ing
Ġext reme
Ġs qu
Ġide as
Ġem ot
Ġh arm
ĠSc ience
Ġfe et
Ġanim al
Ġl ate
b or
Ġt ax
Ġa ff
id ge
Ġvis it
r ated
ut h
Ġc oun
Ġgrow ing
Ġl og
ĠW ill
Ġchall eng
Ġatt ack
ĠCh ina
Ġcons ist
Ġc ust
Ġcor rect
Ġo x
Ġdis pl
l s
ir it
Ġnum bers
Ġelect ric
o ly
Ġv acc
Ġa ware
Ġser ies
Ġcontin ue
Ġvir us
ĠM e
ĠA pp
Ġa p
Ġ- -
Ġl at
Ġdra w
ĠE d
se t
Ġhy d
Ġinclud ed
Ġpat ient
os ing
Ġnet work
Ġse lect
ĠM any
Ġm ess
ec ause
Ġprob ably
Ġexp ress
c ies
iss ions
an a
Ġdef in
os ure
Ġsome one
Ġman ufact
rib ution
2 5
Ġ /
Ġt akes
Ġdoes n
O N
Ġsaf ety
f ect
Ġcol on
Ġget ting
Ġc ross
Ġ ir
Ġve get
Ġeas ily
i us
ĠQ u
Ġind epend
em s
in o
Ġ2 4
Ġag o
Ġthere fore
Ġm other
Ġn ight
im um
Ġd ou
ĠC ount
Ġk ids
Ġcomm it
Ġpre p
Ġintern ational
ra ft
ad s
Ġc it
Ġfin anc
ĠI nt
Ġlook ing
he l
Ġpr int
an ks
Ġth us
ens ion
ce ll
Ġqu ite
in ks
Ġs ou
t ies
Ġse a
e xt
Ġinvest ig
Ġsp eed
w here
ograph y
h aps
Ġt iss
g round
Ġm agn
er g
Ġallow s
Ġcon cent
Ġtradition al
Ġd aily
vent ion
Ġf a
ĠJ an
ĠCent er
Ġpolic y
Ġe th
y r
as ons
O n
Ġw all
ers on
h a
Ġinst ead
y ing
Ġm ental
Ġt ur
ĠP re
Ġperform ance
Ġprim ary
Ġapp ropri
ĠM ore
I S
ĠB o
Ġco ver
Ġv it
u ary
Ġd ang
Ġf ul
Ġdiffere nce
Ġdeterm ine
Ġcommun ities
re w
Ġstart ed
Ġlead ers
ĠY our
Ġd iv
ww w
ing ton
Ġthe ory
Ġto wn
if orn
Ġt ree
O R
Ġadd ed
r or
Ġear l
i ot
ĠE duc
ĠA ug
abet es
ĠA g
Ġf av
o very
Ġestab lished
Ġpoint s
Ġdise ases
c il
o es
n a
Ġest im
Ġtool s
Ġ i
Ġbo oks
Ġs il
Ġprog ress
Ġth ous
Ġb ab
Ġev al
ĠJ u
Ġw arm
Ġref lect
Ġlar ger
Ġun ique
ĠP art
Ġinst it
Ġachie ve
Ġhe ld
Ġhum ans
itud e
an cy
ĠC ons
Ġmult iple
Ġ4 0
Ġquick ly
Ġn ation
Ġins ide
Ġprote in
Ġc ivil
ĠEurope an
Ġth ird
Ġun c
ĠInd ian
or ks
r ate
ce ed
ĠJ es
Ġdirect ly
Ġcomp ared
Ġs old
ri e
r s
Ġal tern
ĠF rench
ĠM ost
Ġt end
Ġdec re
ĠA c
Ġca pt
Ġdemon str
Ġre ve
Ġhigh ly
iforn ia
Ġoff er
Ġmil itary
Ġdr ink
ien cy
Ġspe ak
Ġfr ont
Ġscient ific
Ġtre es
Ġey e
Ġcompan ies
Ġpro ced
Ġimm edi
und red
ell ow
s on
Ġh ost
ound s
Ġbir th
ĠG l
Ġansw er
Ġb it
j oy
ĠC om
ĠE l
Ġas pect
Ġfamil ies
use um
Ġr out
Ġf oot
Ġw ent
el t
Ġa ud
Ġac id
Ġse vere
Ġsol ar
il le
um an
Ġdoc ument
ĠInstit ute
Ġaddition al
Ġd ry
A N
Ġal though
Ġinf ection
Ġbeh ind
Ġneg ative
if t
ter m
p e
iqu es
Ġact ive
Ġext ra
Ġseem s
Ġsec urity
Ġexerc ise
Ġt ri
Ġso on
O ne
ĠAr t
ĠDep artment
Ġh or
Ġuse ful
ĠGerm an
Ġcrit ical
Ġlab or
Ġb ad
ĠW est
Ġcent ral
Ġtrans port
n ov
ther n
Ġw alk
Ġf ram
Ġg ard
ul ate
Ġvide o
v ant
Ġh ar
i ers
ur ies
pr il
Ġsupp ly
Ġbegin ning
her n
Ġc ard
2 3
Ġp rior
is ms
Ġ201 0
ĠCal ifornia
Ġbro ad
y ond
Ġtoward s
Ġcl in
d en
ĠC O
r ig
Ġele ments
Ġte aching
om et
Ġhtt p
il os
ĠG ree
gen cy
Ġ ,
Ġsh all
ro gen
Ġlead ing
Ġob t
Ġs ection
ĠS m
ĠO f
Ġpurp ose
2 1
Ġlim ited
ol ar
Ġst ay
Ġanal y
Ġa im
ĠCh ild
ĠM arch
Ġse arch
ĠN ot
ĠCh ar
om ing
Ġqu ant
Ġsit uation
S o
ĠR uss
Ġmin utes
form ation
Ġs us
ce an
c oh
Ġb ase
ib er
Ġinter p
m ar
ĠO ther
Ġcont ains
âĢ ¢
H e
ĠR ec
ĠU s
Ġacc ur
Ġ201 2
or ing
ĠH ar
Ġexp ect
Ġfe atures
Ġh abit
it er
ĠAl though
Ġwh ose
Ġcont ribut
l ation
Ġdoct or
Ġl ost
Ġst ra
I C
r ition
Ġn ucle
ĠAfric a
olog ies
Ġdec l
Ġsoft ware
Ġm om
ĠJ une
4 0
Ġan cient
Ġhand s
Ġh ot
Ġm ount
__ __
Ġdescrib ed
Ġval ues
ĠO ct
Ġf ight
Ġthink ing
ĠIntern ational
ĠM us
Ġst ri
Ġel se
ro te
ort hern
ĠH er
le ction
ĠAfric an
c ome
A nd
Ġprot ection
Ġon es
âĢĿ .
Ġcust om
Ġstr ateg
Ġbl ock
Ġim ages
r an
Ġex act
Ġb rought
Ġd ark
Ġ201 1
f ort
Ġen joy
al y
ĠHist ory
Ġn orth
Ġc red
ĠS ch
se ct
Ġh undred
ri ption
ines e
it is
Ġad minist
Ġj o
Ġf ast
Ġrequ ires
Ġcap ital
ĠH ere
Ġg ot
ĠA nt
u k
Ġnew s
ĠR iver
Ġfinanc ial
im in
Ġdec ision
Ġinflu ence
e qu
ĠJes us
Ġsust ain
w ise
Ġp ack
g n
ist ry
in ct
us ed
Ġl ength
b ol
Ġg ame
Ġgo al
Ġcap ac
Ġe p
Ġwr ite
ra el
Ġapplic ation
Ġrece ived
Ġadult s
he st
Ġlaw s
Ġloc ated
ĠT ra
ĠRe g
Ġdis p
Ġcar ry
ch ing
Ġag ricult
ĠAug ust
ĠC or
Ġwas te
Ġpriv ate
Ġw a
Ġm ill
Ġlar gest
Ġan g
ĠChrist ian
l im
Ġmem ory
Ġbacter ia
ĠB ar
Ġbec omes
Ġdem and
Ġex cept
pp er
hen s
ĠM on
Ġr ates
Ġle aves
Ġad op
iel ds
Ġag ree
ĠK e
Ġimport ance
Ġor d
Ġcost s
Ġl ines
ĠSe pt
Ġj ud
ul ated
Ġwee ks
ra g
c ks
se e
at t
Ġrelig ious
ĠT w
ibr ary
il es
ĠF irst
Ġs n
Ġm ole
Ġproject s
c on
Ġpl aces
Ġse ason
v est
A S
m ission
Ġwebs ite
iz ations
Ġe gg
m ed
Ġtyp ically
Ġm ention
od ies
Ġwork ers
Ġnear ly
ĠD av
c ial
Ġs outh
Ġsit es
Ġf it
Ġra re
im al
Ġbe aut
Ġu lt
6 0
est ic
Ġf ather
Ġ2 1
u ro
Ġst ru
b it
Ġappropri ate
Ġre ach
ar ian
Ġprocess es
Ġ x
Ġto ld
Ġestab lish
Ġdev ices
e al
Ġsol ution
Ġtechn iques
ip ment
Ġtest s
Ġsur round
Ġteac her
Ġrem ain
Ġve h
Ġfri ends
coh ol
yp e
Ġde al
19 9
Ġeff orts
Ġb orn
8 0
ĠS erv
id ents
Ġrem ains
Ġt able
ĠM c
Ġcomm and
c les
it ect
Ġsu gar
l ife
A t
og en
Ġbas is
Ġcommun ication
E N
Ġsa w
Ġg ives
ent ially
ie ce
A C
Ġresp ond
at ur
Ġra pid
Ġproper ty
ĠW ash
ĠJu ly
I V
iz es
ĠF rom
ĠAmeric ans
Ġcreat ing
ĠA pril
y ear
res h
Ġc ool
Ġdi ed
Ġcit iz
b ack
Ġv ict
ĠP ress
ĠM y
Ġde ad
Ġcult ural
ĠS w
' re
Ġhim self
a id
i ar
o ke
Ġad apt
Ġinst all
Ġad j
a ul
Ġcent er
Ġany thing
Ġc rop
Ġe ating
Ġtest ing
Ġadv ant
Ġevery thing
u ous
Ġp an
ĠPro g
i pl
ĠPres ident
Ġwe b
u ments
Ġapplic ations
Ġro om
E D
Ġ200 9
ĠEng land
Ġh ope
ĠAss oci
2 4
The se
Ġsum mer
Ġey es
i ra
Ġh ous
am a
Ġmon itor
ond on
Ġnot hing
Ġconst ruction
ĠCanad a
ou d
Ġrespons ible
Ġm ix
Ġf uel
Ġmil es
augh t
Ġs on
ĠCh inese
Ġsc reen
oc ol
Ġd er
Ġst age
ĠD ay
k ing
Ġco ast
Ġse qu
Ġim ag
ĠIs rael
Ġdep end
Ġte eth
Ġb ott
w ater
Ġbehav i
Ġfollow ed
ce mber
Ġconf lic
Ġre asons
Ġbenef it
Ġf inal
ĠGo vern
Ġpract ices
Ġtra de
Ġask ed
Ġdev ice
d ing
ĠEduc ation
Ġtherap y
ĠC ong
Ġsp irit
Ġc ode
Ġrec ently
Ġc ou
Ġfor ces
Ġb reat
se c
Ġdig ital
Ġant i
Ġh yp
h am
I T
ĠP ark
Ġce le
Ġobject s
Ġbe yond
Ġdi abetes
Ġ ice
Ġcon sequ
he ad
Ġexam ples
o e
ĠWill iam
Ġaut om
Ġaffect ed
Ġm iddle
Ġcal cul
ough t
ill ing
Ġ200 8
Ġgra du
ex ic
Ġconn ect
ĠE c
Ġexp ected
i ples
Ġc am
Ġleg al
Ġold er
Ġrece ive
Ġcho ose
Ġcont roll
f ord
Ġconst it
Ġt it
ĠC ity
Ġd ate
Ġ201 3
Ġvis ual
rib ute
ter y
it able
Ġc ra
Ġyour self
om b
Ġopportun ity
Ġp en
m osp
Ġf ear
Ġra in
ell ig
Ġcol d
ar i
Ġm id
Ġins p
Ġt en
an ish
on y
ĠCh urch
b ook
ap ter
Ġk ing
Ġf ederal
Ġsc ale
Ġprofess ional
B y
Ġsmall er
t ime
Ġcommun ic
l am
Ġw oman
l amm
str ial
Ġstand ards
Ġu nd
est s
ĠB i
Ġset t
ĠG reat
Ġ :
) ;
ĠTe chn
E x
ĠIn c
Ġevery one
Ġprov iding
b ur
Ġequ ipment
P A
Ġrecomm end
Ġmod els
Ġorgan ization
ul a
W ith
Ġcurrent ly
ove mber
Ġpo ly
ĠJan uary
Ġal one
ic a
ed ia
ĠF eb
u ff
ĠE ven
Ġoccur s
air s
ĠWash ington
Ġcomplete ly
Ġsh ape
Ġeconom y
Ġtry ing
Ġinterest ing
Ġloc ation
ĠL ear
Ġv ia
ĠR et
Ġus ers
Ġus er
en ge
Ġinst ru
Wh ile
ĠSy stem
Ġrul es
Ġw rote
Ġgo es
ĠO ur
Ġbe g
Ġeff ort
m en
ĠJ ournal
Ġf ile
Ġb ul
Ġexp osure
c an
osp ital
ĠSept ember
ĠA ccording
oc r
e v
l in
Ġro ck
Ġh on
Ġsuccess ful
Ġw on
Ġpur ch
Ġbir ds
Ġc ru
ver t
Ġdeg ree
ĠD NA
Ġro b
ĠThe n
Ġmeas ures
re es
ĠDe velop
Ġstreng th
Ġcolle ction
Ġappro x
ĠTr ans
lo ad
Ġdest ro
Ġcommon ly
ĠB r
Ġdrug s
Ġn amed
Ġp et
Ġmem ber
ro s
Ġmaint ain
Ġle ave
Ġdiffere nces
ĠD is
o ff
Ġconst ant
a ur
mit ted
ĠCount y
Ġ2 3
Ġgen etic
Ġearl ier
Ġs we
ies t
Ġwe ather
Ġc ateg
oc ks
Ġfor mer
ĠR oman
ĠR ed
Ġr ise
Ġplan et
ĠE ast
Ġis n
Ġover all
ĠOct ober
w ide
ĠS im
Ġw inter
ĠComm un
Ġredu ced
ĠL aw
Ġstep s
Ġallow ed
od ay
Ġappl ied
Ġocc up
ĠV ir
Ġen h
Ġpl aced
ing u
ĠM exic
ed om
Ġpre gn
Ġne igh
Ġ19 3
Ġelect r
Ġfru it
Ġr ich
ĠL ondon
ib ly
Ġcomm erc
ĠP ol
u it
Ġident ified
Ġch urch
Ġper fect
Ġcontin ued
ens ity
ar a
Ġe ight
ĠH igh
Ġcom ing
hem at
Ġ6 0
Ġdisc overed
Ġent er
Ġpred ict
Ġb illion
Ġte ach
re c
Ġpower ful
Ġg ir
Ġw ond
ĠDe cember
Ġto x
i able
b l
Ġm ax
ra b
Ġmajor ity
2 7
Ġs ch
Ġhistor ical
Ġro ad
ire ction
Ġcont ext
m ore
Ġstat us
ĠBl ack
Ġex ec
ĠS ur
Ġdispl ay
Ġform ed
Ġp ow
Ġr ule
Ġm iss
Ġ200 7
Ġtra ck
ĠC oun
gy pt
ĠV al
ent y
2 6
S ome
at ers
Ġac qu
ud d
ĠC our
ĠRe ad
Ġg ave
Ġtiss ue
Ġnot e
ric k
Ġj oint
Ġ19 5
ord s
ĠI S
ĠS an
it ch
Ġshow ed
Ġpattern s
ĠIn st
Ġv ill
ĠM od
Ġm is
Ġvir t
Ġa st
ĠD uring
ru ary
b re
en cies
Ġpres ence
Ġm ob
Ġimm une
al t
Ġg old
ain t
Ġper haps
em y
Ġact ions
Ġm outh
st e
ee ch
Ġb ra
know n
Ġcour t
Ġd en
re et
Ġsit u
Ġb all
Ġph ilos
Ġnut ri
Ġf air
Ġsign s
Ġc ook
un ch
Ġal cohol
Ġvers ion
al ed
A L
Ġem p
2 9
Ġm ut
Ġbelie f
Ġrem ember
ĠGen eral
ĠB ecause
Ġs ect
Ġproper ties
Ġincre ases
c ious
ĠAl so
Ġful ly
Ġdid n
Ġpe ace
Ġmom ent
Ġfem ale
od es
ĠW ater
Ġc ry
Ġgu id
Ġr at
Ġill ness
rel ated
Ġlim it
Ġass ign
Ġcho ice
ĠAr ch
Ġrelative ly
Ġcomp ar
ast e
os y
Ġcapac ity
Ġill ust
or ation
if ul
Ġsym bol
Ġfact or
Ġfun ctions
ĠS ince
ĠN ow
or ge
Ġst im
P ro
Ġass ist
Ġac ad
in ated
7 0
Ġmach ine
Ġat mosp
Ġun it
Ġchang ed
ĠP at
2 8
Ġst ories
qu e
c o
ĠN ovember
Ġe fficient
Ġan x
ĠH ouse
Ġconst ruct
Ġst aff
ph as
Ġt ou
Ġd at
Ġinc or
Ġm ig
Ġele ment
Ġas se
i ate
Ġmus cle
Ġr iver
Ġwork ed
c raft
E C
Ġc ities
Ġp iece
Ġmov ing
Ġappear s
Ġprom ot
Ġwor th
Ġstru gg
res p
Ġeduc ational
ger y
am ent
ĠCon f
ri ef
ĠSoc iety
Ġt ask
Ġexist ing
Ġem issions
Ġn ames
ĠA re
Ġarch itect
Ġfor ward
Ġte le
ĠF in
Ġf resh
ĠPe ople
Ġg iving
" ,
am b
ĠPro t
og le
Ġant ib
Ġv o
ĠJew ish
ien ces
tern al
ĠJ ust
Ġbab y
ĠU se
ĠAustral ia
Ġcon vers
ir ing
A d
Ġopportun ities
Ġrep e
ĠR o
ĠE gypt
pect ive
ĠUn ion
Ġin sect
Ġoff ers
Ġequ al
Ġwr ong
p art
Ġev olution
Ġtrans fer
for ce
h ouse
Ġn ative
Ġrun ning
Ġdist ance
a ign
Ġ +
ab ilities
Ġpr ice
Ġcompon ents
I I
à ¤
e es
Ġchalleng es
ru pt
Ġeval u
Ġexper im
Ġ ing
Ġreg ions
ess ion
Ġpict ure
ĠGerm any
ic ip
Ġbal ance
Ġdet ect
er o
Ġw atch
Ġass um
Ġmil k
Ġm ission
Ġd irection
Ġst ar
Ġthous ands
ĠPh il
Ġabs or
Ġe ffic
Ġ2 8
Ġclass room
âĢĿ ,
at in
Ġin nov
Ġh uge
Ġexp and
Ġbelie ved
Ġreport s
in y
Ġst yle
Ġfore ign
U n
Ġsur pr
Ġconsum ption
Ġro ot
Ġfind ings
Ġfri end
as ion
Ġdef ined
Ġdetail s
Ġ2 6
or age
y d
Ġfam ous
Ġpl astic
y gen
Ġinst ance
ĠF l
Ġinst ruct
Ġbo x
Ġha ir
Ġwe ak
Ġoff ice
Ġplan ning
ĠPro f
Ġcitiz ens
A ll
if ically
Ġgard en
re hens
E M
B e
Ġqu al
Ġsur vey
ĠAssoci ation
Ġch ance
Ġ200 0
Ġtechn ologies
Ġpass ed
Ġb ound
Ġres istance
Ġexpl ain
Ġp p
om a
Ġgo als
Ġopt ions
Ġcoll abor
Ġgl ass
ĠA ng
Ġtre ated
Ġbl ue
ĠThe ir
ed ing
ĠE ach
Ġstrateg ies
Ġcont ract
Ġatt ract
Ġevent ually
b ed
ig en
ĠCong ress
Ġexperien ces
ĠTh us
Ġm al
Ġgu ide
Ġobserv ed
ul s
ĠP al
er a
Ġvis ion
Ġ201 5
Ġ2 2
Ġdisord er
om as
ĠFr ance
S T
Ġbre ast
Ġf igure
Ġse ven
Ġfe ature
Ġsuggest s
Ġm ale
Ġcar ried
Ġf ix
rom e
Ġ200 6
ĠIntern et
ĠEn vironment
Ġm ap
A fter
Ġs ac
Ġstruct ures
h ors
ĠG reen
Ġextreme ly
Ġp hen
Ġf ert
ĠFeb ruary
Ġfav or
ograph ic
Ġapp ly
u ild
c he
Ġex hib
Ġg ain
D A
Ġlearn ed
Ġsignificant ly
pp ed
ĠW estern
ĠMed ic
Ġex cess
Ġcommerc ial
Ġinc ome
Ġsepar ate
al d
c ont
Ġ2 7
k y
Ġut il
Ġb ank
Ġsupp l
ĠJapan ese
ĠU K
I s
c are
s u
ĠN A
ch ar
ec es
Ġpresent ed
n es
Ġd ivid
Ġhapp en
rie ved
te e
Ġimmedi ately
Ġtop ic
Ġh om
le ge
Ġeas ier
Ġpl ans
Ġbo ard
Ġtr uth
Ġp ick
Ġdec ades
Ġdep ression
Ġclin ical
Ġcele br
ĠU N
ĠL ord
Ġbec oming
Ġexpl ore
Ġsp ring
Ġl iqu
Ġgen e
A r
Ġgener ation
is ation
Ġre ality
ul um
Ġrequire ments
Ġsa ve
ĠIn ter
Ġheav y
Ġsp ect
Ġd yn
k en
ĠProg ram
ĠP ublic
Ġ iron
ub e
Ġit ems
Ġhig hest
ward s
i ant
The y
Ġro t
Ġapprox imately
c ast
ĠC ur
Ġdist ribution
9 0
z z
Ġdestro y
Ġb odies
op hy
Ġj ournal
Ġorgan izations
us es
Ġconduct ed
ĠCoun cil
Ġres ource
Ġur ban
r is
Ġdec isions
Ġleg is
Ġaltern ative
ĠV ol
un ction
Ġm o
Ġv ary
ĠT ur
Ġv es
i ance
Ġdisord ers
Ġb one
ĠD on
Ġperform ed
Ġsl ight
Ġchall enge
a res
c ular
ĠB ra
Ġsex ual
er ate
as ks
Ġem phas
i ated
ĠM ary
Ġst ream
Ġmov ed
Ġact ual
Ġaspect s
E T
ĠH uman
Ġfa ith
ul f
ent h
Ġintrodu ced
ĠC he
Ġser ve
Ġpop ulations
Ġelectric ity
Ġno vel
plic ations
ch ange
ĠM at
Ġag g
Ġm er
Ġfrequ ently
ĠL et
olog ist
Ġ â
Ġmet al
Ġ200 5
Ġc and
ĠJ ames
3 5
Ġindu strial
Ġhouse hold
Ġb ed
Ġ201 6
Ġexp ression
Ġfil m
Ġrem ove
Ġ201 4
ĠGree k
Ġrele ase
Ġnut rition
ĠDav id
Ġop in
Ġconn ected
Ġf ig
ĠA ut
i as
Ġ esc
Ġg ames
Ġcy cle
m et
Ġcont rast
H E
ĠWe b
Ġwide ly
Ġcomb ination
Ġch ronic
b al
ĠD es
Ġmedic ine
ĠS ee
ĠSp ec
Ġref erence
ĠM ich
Ġint ellig
Ġ ign
Ġnucle ar
ant ic
Ġpart y
ruct ure
ĠO ver
Ġk id
Ġexper iment
ro ph
Ġh omes
Ġestim ated
Ġclear ly
Ġrele ased
P h
Ġcom pl
Ġtrans l
Ġsp eech
Ġlet ter
Ġrecomm ended
ĠM or
cl us
p ed
Ġdes p
ap ers
Ġgra ph
Ġdiscuss ion
Ġ8 0
Ġassess ment
Ġcaus ing
Ġis ol
ĠD ec
ed ic
ĠChild ren
ĠRe v
id a
Ġth r
Ġst ore
Ġrecord s
il it
d o
Ġparticip ants
ord er
im ens
Ġm ag
Ġnot es
Ġox ygen
ĠPl an
Ġset ting
Ġoper ations
ke y
Ġtechn ique
Ġvit amin
Ġviol ence
Ġbuild ings
re st
ot hes
ous ly
Ġdr ive
R E
Ġliter ature
ogn itive
por ary
Ġl ived
ĠN et
Ġf ields
ra w
Ġpart ners
Ġany one
Ġindepend ent
Ġdi vers
Ġhe ar
Ġdog s
oc al
Ġk illed
Ġbott om
Ġpres ident
Ġget s
Ġbu y
Ġnum erous
Ġorgan ic
ĠDevelop ment
Ġstart ing
ĠF ound
Ġpre par
S h
ĠCol lege
ic ial
w orks
ere nces
ĠSp anish
Ġtr ust
te red
ol ved
Ġwant ed
Ġdou b
ĠRep ublic
Ġturn ed
Ġc overed
iven ess
ress ive
Ġbat tle
Ġchang ing
Ġpolic ies
rou p
Ġapp e
r ant
Ġintern al
Â °
Ġfl ood
erv ed
Ġt rib
i j
Ġtr ig
ĠR el
Ġtemper atures
Ġw in
Ġresult ing
olog ists
ag er
Ġun ivers
Ġmin or
Ġfre edom
Ġpre fer
t ical
Ġcharacter istics
Ġconn ection
Ġfail ure
Ġcre ation
Ġread y
ra ction
Ġsh ap
ĠA v
Ġt our
at ically
Ġem ail
A M
Ġter rit
Ġves sel
Ġd ri
cept ion
Ġredu cing
het ic
Ġinvol ves
Ġris ks
ĠSoc ial
Ġst orage
Ġanx iety
n am
Ġsam ple
i os
Ġp i
O S
el ines
Ġd rop
Ġt im
Ġlo ad
ĠF ood
Ġgen es
Ġencoura ge
Ġrefer red
id ers
Ġs and
Ġrelationship s
Ġexact ly
ang ing
Ġnot ed
ĠThere fore
ĠM useum
Ġ19 0
Ġinit ial
Ġn or
P S
Ġinf lamm
Ġlay er
Ġb urn
ond s
Ġconflic t
Ġout put
stit ution
on ic
lic k
4 5
Ġs em
Ġcamp aign
ĠCour t
Ġ #
Ġcon v
Ġremov ed
at form
Ġmeet ing
i i
ĠU nder
ro g
Ġinj ury
Ġgr ass
Ġdist inct
Ġsol utions
Ġo cean
Ġfeel ing
Ġmention ed
Ġdang erous
Ġmess age
ĠGe orge
Ġmost ly
Ġhapp ens
ĠP aul
Ġcirc um
ĠGovern ment
Ġg od
Ġto oth
Ġaut hors
Ġar m
Ġconf irm
How ever
A ccording
ur ance
ĠRet rieved
Ġfind ing
Ġal g
Ġprinc iples
Ġrad io
Ġs av
Ġwh om
Ġback ground
Ġrepl ace
Ġrep rodu
a ult
Ġcoun ter
Ġis land
Ġt um
Ġbeaut iful
Ġun f
Ġdeterm ined
ortun ately
ol id
m ark
Ġproper ly
le ase
row s
ess or
ric ulum
Ġdescrib e
Ġt rou
Ġrelig ion
Ġsc en
ĠO nce
Ġclass es
Ġinf ections
H ere
Ġo ption
Ġh orm
Ġlead s
ĠA ir
ish ing
ĠIs land
Ġhe ard
Ġphys ic
Ġel imin
Ġhelp ed
Ġstate ment
Ġ18 6
Ġu pper
Ġth ick
Ġ2 9
Ġd ram
ĠC ath
Ġple ase
Ġdeg rees
ĠT ex
ĠPro ject
ĠO b
Ġsur gery
Ġinterp ret
Ġup d
Ġann ual
iet ies
Ġse eds
w ith
osy stem
Ġprom ote
Ġregard ing
Ġex cell
Ġcl ick
ĠW ork
Ġtre nd
ri age
Ġadvant age
Ġ201 7
Ġvol unt
ress ed
Ġart icles
Ġserv ed
Ġincor por
Ġcal c
Ġbel ong
Ġprevious ly
3 3
Ġvol ume
Ġvict im
or ial
Ġra ce
Ġun its
Ġinvol ve
Ġmat hemat
Ġp ages
Ġsy nt
Ġexperien ced
Ġgr ant
Ġse ed
Ġv ul
Ġcons ervation
Ġrele vant
ur ation
Ġf ine
Ġadv anced
ĠOr gan
u ing
ag o
Ġegg s
ĠWh y
ĠIn f
ĠT est
Ġm ist
Ġland sc
Ġre b
nd rome
Ġadj ust
ĠO ff
Ġin put
Ġc ore
Ġcolle ge
ĠS am
re p
Ġinterest ed
Ġprofess ion
re te
b i
Ġ9 0
Ġp al
o ch
ri a
Ġp ric
ĠM ount
ĠF ore
Ġreact ion
Ġin h
Ġdec ided
Ġexper ts
7 8
Ġl ung
c ers
n ic
Ġlink ed
Ġg ender
ĠM ark
w ood
Ġme ant
Ġtrans form
Ġsp ent
Ġs ort
Ġd ie
ĠD em
le g
ĠS un
Ġme at
m at
C on
all ed
Ġexp osed
Ġv ot
Ġmanufact ure
Ġdep ending
t a
Ġcomp rehens
Ġc ast
Ġsp ot
Ġamount s
oy al
um n
ĠIt s
Ġacad emic
Ġsol id
ate gy
Ġn orthern
Ġemot ional
r um
Ġsay ing
ro ad
ĠM al
ĠG ra
Ġsign al
y a
p ing
Ġ ...
M any
Ġj our
Ġcred it
Ġke pt
Ġs ong
ribut ed
Ġprocess ing
ĠS T
Ġwe alth
S p
m al
ĠJew s
Ġcom fort
Ġ200 4
Ġengine ering
Ġconcer ns
r ates
Ġ7 0
Ġhe aring
Ġstr ategy
Ġsh ip
Ġsqu are
Ġc ere
Ġrad iation
ut ed
Ġm el
Ġr ound
ĠR ober
v ision
in ate
ĠIs lam
Ġoper ation
ĠMexic o
Ġph ase
Ġeffect ively
Ġob vious
r ans
ĠAs ia
7 5
ĠM ars
Ġdef ic
Ġprep ared
Ġm ath
Ġhelp ing
Ġsou thern
Ġf ol
Ġw est
Ġdis s
R es
Ġpre t
ĠD i
Ġman age
iver se
Ġexper t
Ġpoll ution
T hat
ify ing
Ġp ip
Ġh our
Ġfarm ers
Ġess ay
N ew
Ġconcer n
b all
d ed
t es
W hy
augh ter
Ġl ic
Ġproced ure
Ġchar ge
Ġdat ab
and er
ĠPh ys
Ġown ers
u x
3 6
C C
pl ace
ur t
Ġgra de
Ġp un
Ġco al
z a
Ġconcept s
ac ing
ag s
Ġk ill
ĠH en
ĠStud ents
O ur
Ġveget ables
Ġfrequ ency
Ġmot or
ĠA D
Ġpi eces
Ġpres c
Ġcomple ted
Ġim pl
Ġman ner
Ġcons ult
el ine
Ġinflu en
Ġsustain able
ul es
e k
Ġdiagn osis
bo ard
ĠR ich
ĠB el
Ġoffic ial
Ġinv ent
am s
Ġvacc ine
Ġre ached
Ġmain ly
ĠS ub
Ġsec ret
Ġsee k
onom ic
ĠA rab
Ġprop osed
Ġless on
ĠP ort
Ġdisc over
w ell
Ġa id
wh ich
ĠL a
Ġlo oks
N ow
Ġimpro ved
Ġatmosp here
Ġcl os
as tern
an ch
Ġauthor ity
stand ing
it z
ĠJ e
I m
Ġdrink ing
Ġaware ness
is her
Ġinstit utions
Al though
Ġconc lud
Ġapp oint
Ġsupport ed
Ġbro ther
Ã ¡
Ġyou th
Ġpl atform
ber g
Ġst ation
z ing
A D
Ġdefin ition
ĠâĢ ¦
Ġchemical s
Ġfor ced
Ġfin ally
ĠWh ite
il ing
ak ers
ĠAc ad
ĠServ ice
Ġb ud
ren ce
Ġbl og
Ġbeg ins
Ġallow ing
Ġpurp oses
Ġcontin ues
Ġmot iv
Ġredu ction
Ġcon ver
Ġsu fficient
Ġcor resp
v is
ĠH IV
Ġh ospital
orm al
Ġrecord ed
Ġy ellow
Ġnot ice
ĠTex as
Ġform ation
ok ing
ac ific
Ġw et
Ġ200 3
Ġpract ical
ĠVir gin
Ġwond er
am ental
u able
O T
Ġb an
Ġint ended
ĠS en
3 8
it ors
Ġh op
k in
Ġtox ic
d es
Ġcont ribute
l ig
rap y
ĠE v
com es
ag ue
C l
Ġcom ment
Ġt aught
ĠH el
Ġl ib
cl usion
Ġmus cles
ĠE very
ver ty
al le
Ġmor ning
Ġe ast
Ġpo verty
is hes
Ġlangu ages
Ġf ib
ĠR em
Ġw aters
at ric
Ġphen omen
Ġh it
ro ke
ĠS er
Ġeffic iency
Ġvul ner
ak er
Ġsitu ations
Ġst orm
Ġl ov
ĠCent ral
ĠBrit ain
Ġsubject s
Ġcomb ined
Ġsus p
Ġre new
Ġprote ins
ĠM iss
Ġelectr ical
et ers
Ġsh ared
Ġfor t
ĠO ld
1 00
ĠJ er
Ġn av
ĠM ac
Ġoff ered
' ll
Ġm aster
Ġcare er
ot ic
F rom
Ġprim arily
ri er
Ġsam ples
os ite
Ġco ord
h t
s es
r ations
Ġ3 5
op er
Ġfocus ed
Ġkind s
ĠM r
A P
ĠC ivil
ĠB er
Ġrem ained
Ġdyn am
Ġn erv
Ġconsequ ences
ear s
Ġcent uries
Ġd ro
ĠB as
ĠMus lim
ĠK ore
Ġtechn ical
esp ite
atur ally
C O
Ġp ark
Ġset tle
ad o
ĠB udd
Ġide al
Ġl inks
Ġindic ate
Ġt asks
Ġb rief
ĠL ou
ĠFr anc
Ġtreat ments
yr ight
Ġident ity
oss ible
Ġstra ight
Ġfact s
oun ced
ew ork
Ġcertain ly
ĠM et
Ġhe ight
t ion
Ġm ort
o o
am ple
Ġra ised
ar row
ul ating
i xt
Ġper man
ĠTh omas
Ġlarge ly
ri an
ĠMed ical
Ġjob s
Ġliqu id
ĠMedic ine
Ġf lex
Ġw ife
Ġexist ence
ĠM art
ox ide
Ġmot ion
ac he
g l
Ġspec ifically
act ers
g ra
Ġvo ice
Ġdig est
M ost
Ġd oll
Ġgra nd
Ġn it
ĠL ife
Ġbir d
Ġnutri ents
ĠAr my
Ġcr is
Ġar my
Ġoper ating
Ġshow ing
Ġlet ters
Ġprofess or
Ġp ul
Ġinit i
Ġst one
f ield
A b
3 4
Ġrec y
ĠF re
Ġt ro
ĠCl ass
Ġec osystem
Ġf elt
Ġext ent
Ġmet ab
os en
R O
Ġpers pective
go ing
w est
ĠI r
ĠF urther
ĠB ay
ĠAt l
ĠEn ergy
Ġsp end
Ġf oss
ist an
ĠB en
Ġcollect ed
ĠS al
r ich
Ġres ist
Ġadv ance
ing er
Ġthe r
Ġoccur red
ĠC le
ol ute
Ġgir ls
r as
Ġflow ers
Ġexcell ent
U S
A meric
E L
Ġaffect s
Ġthough ts
Ġkeep ing
Ġp ray
w hat
Ġ200 1
ĠNew s
Ġdesp ite
Ġhy per
Ġrespons ibility
Ġimpact s
Ġsal t
Ġatt acks
Ġlead er
Ä ģ
ĠD ise
ĠNA SA
Ġsh ar
Ġsound s
Ġsect or
Ġn ations
Ġbr ight
ĠD ist
Ġc ert
ĠComm ission
Ġ199 0
Ġqu ar
Ġra il
un k
Ġsurround ing
Ġdi am
ĠSp ace
P l
Ġf aster
Ġpro s
ipp ed
Ġk n
Ġother wise
oth ing
Ġv ast
Ġv ital
rast ructure
in ent
Ġv ent
Ġb ill
ĠD irect
Ġdou ble
Ġc ognitive
Ġplay ing
ut ive
Ġl iver
in f
Ġon to
Ġtr ial
c ol
Ġimm ig
Ġor al
Ġsc he
Ġro ll
N o
ens es
ĠB ur
Ġdetail ed
' ve
Ġbi ological
Ġhelp ful
ĠTechn ology
Ġsy n
3 9
Ġagricult ural
Ġexpl ains
ĠH ol
p oint
os a
e y
Ġpers ons
Ġref ers
Ġare n
ĠL atin
z y
Ġplay ed
ail s
Ġadv ice
Ġab use
ĠB oth
th at
Ġsuggest ed
ic ed
um in
ĠSec ond
Ġ Ã
Ġrev olution
rol og
n el
] .
Ġinterest s
Ġfamil iar
Ġemer gency
ĠD ef
ang es
Ġf if
Ġcompon ent
ĠM ass
ĠQ ue
Ġmeas ured
Ġflu id
om etimes
Ġveh icle
Ġfac ilities
b and
Ġne ut
Ġst em
Ġcl im
. ;
Ġpartic les
Ġincreasing ly
Ġchar acters
ĠB ible
Ġmonitor ing
a el
Ġpol ice
st ood
Ġcrop s
Ġimm un
Ġs end
ĠB C
4 8
ough ly
Ġhtt ps
anc ing
p en
R I
Ġreturn ed
ĠTw o
Ġcontroll ed
Ġperiod s
Ġfl oor
Ġfollow s
Ġ200 2
ĠC am
Ġtyp ical
Ġex ternal
Ġmo ist
Ġr ural
ĠR ights
Ġtop ics
Ġdom estic
ens us
Ġslight ly
ind ing
Ġhapp ened
Ġl ik
it ness
Ġm ere
Ġs now
Ġfund amental
g al
Ġdivid ed
igen ous
Ġtra in
d own
h i
Ġmax imum
m p
Ġrecogn ized
Ġfl at
Ġ18 9
om y
? âĢĿ
Ġaccur ate
Ġth in
ol ars
ov iet
Ġlook ed
er ia
Ġexpl an
Ġgreat est
as ure
ĠT reat
l ar
Ġprot ected
Ġinst ruction
Ġapp arent
Ġgood s
ĠW ind
in ant
Ġcur riculum
Ġw el
Ġfru its
Ġinstru ment
ath y
Ġf irm
ĠLear ning
Ġtest ed
Ġsp l
ĠB ook
Ġcont aining
c ript
Ġp il
Ġpain t
n ame
ate ver
Ġl ose
Ġexpl ained
Ġhundred s
Ġhar vest
ĠS ou
ĠP acific
it age
Ġgovern ments
ĠF lor
res ents
Ġdep ends
r ight
Ġinter view
Ġs en
st ate
Ġpot entially
ing ly
Ġspirit ual
Ġtit le
Ġb ow
Ġcons ists
ĠT oday
Ġsm art
Ġcard i
ĠE lect
Ġappro aches
B C
Ġsat is
Ġstud ied
s hip
Ġval id
ĠUs ing
Ġj u
Ġfil es
ĠM il
Ġch ief
Ġconcer ned
Ġph one
Ġneigh bor
Ġfeel ings
or al
Ġrequ est
ro c
l i
I ON
D o
Ġsub sequ
Ġ201 8
Ġclaim s
Ġch ann
ĠA N
ra cy
ĠFound ation
Ġpro port
Ġobt ained
onom y
Ġsuff ering
Ġwall s
ce ler
Ġd ut
um ber
ak s
Ġele v
Ġcon vent
Ġp u
om pl
ific ial
Ġdis app
ĠCath olic
3 7
Ġst ars
g ment
Ġproced ures
Ġcru cial
ĠD ata
Ġs in
ĠL ake
Ġk il
v an
Ġinvest ment
Ġsubst ant
asc ular
Ġgrow n
ĠIn formation
ĠCar ol
Ġoffic ials
Ġt ried
ec k
p at
Ġk new
Ġcontin uous
ĠSt and
o oth
Ġclose ly
Ġport ion
ĠRuss ian
ĠW omen
M ore
Ġf le
Ġro ots
ĠGo ogle
Ġdep th
An other
w in
in ations
Ġcons cious
Ġappe ared
Ġcris is
Ġrapid ly
ĠM iddle
Ġhabit at
Ġdiscuss ed
ĠM icro
Ġk m
Ġpric es
v ille
Ġmove ments
Ġmin imum
Ġp ig
f l
Ġt ips
Ġrep resents
Ã Ń
Ġext ract
Ġw estern
Ġw ire
Ġconcent ration
Ġvis ible
el lect
IN G
c est
ĠJ ud
l a
act ive
ĠC D
ĠChar les
u ke
an es
T S
os c
M S
ab il
ar io
Ġs ides
ĠAn other
ul in
Ġag es
ĠJ ose
Ġadd ing
ĠM ont
Ġselect ed
Ġcol ors
4 4
ost er
Ġdivers ity
ĠN or
il ed
Ġp aid
ĠSe a
Ġn aturally
Ġout comes
ĠO ut
Ġpr ison
Ġha z
âĢĻ .
Ġdist ingu
angu age
ĠM em
Ġra nd
Ġmed ium
ĠD el
Ġst ated
ĠS oviet
ĠSm ith
Ġg ar
ĠRober t
Ġne uro
Ġview s
ĠL and
Ġle aving
Ġval uable
Ġmedic ations
Ġjust ice
Ġmor al
Ġp ump
is p
Ġ20 20
Ġres idents
Ġdecre ase
ĠF am
Ġs ed
ĠSu pp
Ġless ons
Ġal t
Ġexp ensive
Ġintern et
al se
Ġlat est
Ġacc ompl
ĠCont rol
Ġg un
Ġhor se
Ġcorresp ond
Ġ18 8
Ġcou ple
ic ks
Ġrand om
c hers
l ers
Ġprot ocol
Ġcont em
ten ance
Ġst ret
Ġdisc overy
ĠM ake
Ġform at
Ġdel iver
Ġwe ap
ĠL ibrary
Ġcircum st
Ġsy ndrome
Ġrecogn ize
Ġdeath s
ĠInst ead
Ġinf rastructure
6 5
3 2
Ġh unt
Ġinflamm ation
Ġre in
Ġpregn ancy
Ġarg ument
Ġsubst ance
Ġb and
Ġregular ly
Ġappear ance
ĠB at
G o
ĠEng ine
ĠEm p
bur g
Ġsat ell
ĠU p
b ing
Ġsuff er
ĠL ike
Ġset s
Ġagricult ure
Ġd ial
Ġdirect or
ĠR ef
Ġmill ions
ĠS uch
Ġo d
Ġshe l
Ġtalk ing
f ree
oles ter
Ġvill age
ĠRuss ia
ĠStud ies
Ġpict ures
ocr atic
ĠH am
ĠSt e
ĠP sych
f all
Ġre form
ĠW ell
Ġdoc uments
in du
Ġad equ
I nd
Ġinf ected
Ġing red
Ġfund ing
Ġst ock
ĠHen ry
Ġacc omp
Ġ201 9
Ġmy th
Ġfac ilit
Ġla un
Ġdr iving
Ġwe ar
D e
Ġf rag
Ġmob ile
al ian
19 8
Ġcap able
ro id
Ġprinc iple
Ġintrodu ction
Ġ4 5
r id
ĠComp any
ĠW ild
G en
Ġrec overy
st ream
Ġpar am
Ġs ick
Ġcreat ive
at o
Ġ *
ĠD isc
Ġemploy ees
Ġd u
Ġtra d
ex p
olester ol
Ġn arr
om ach
Ġenh ance
Ġall erg
ad a
Ġadv oc
ĠVirgin ia
es ity
Ġnorm ally
Ġbusiness es
Ġfert il
Ġhous es
ĠT em
Ġ <
ib ilities
D uring
Ġra ise
re m
S c
Ġ Î
Ġcl osed
ĠN ature
Ġdescrib es
Ġinter f
Ġsec ure
ot he
c a
i ology
p ass
ĠP ower
idd en
ĠP C
Ġsold iers
m as
l iam
Ġin ject
ol f
Ġcor por
Ġs an
Ġform al
Ġimp ossible
ĠCon stitution
ĠN av
mb ly
ĠP ost
Ġinc hes
l ong
cl ing
Ġtra ffic
plic ated
D r
T e
Ġintellig ence
d den
Ġpart ies
Ġpre f
ĠS af
yp es
Ġlab el
ĠF ederal
H O
ol ve
O ther
Ġp ure
Ġprodu cing
Ġap art
Ġun like
or gan
ot a
Ġn arrow
hem ical
Ġst ages
Ġrec ip
Ġaccept ed
r ants
ĠG roup
Ġco ff
Ġb rown
Ġgener ate
Ġorigin ally
Ġsens itive
Ġinc l
Ġopin ion
os al
Ġd ream
Ġcall s
Ġa w
Ġunder stood
Ġentire ly
ĠB et
ĠLou is
Ġm it
Ġex change
D F
Ġopen ed
Ġprevent ion
in et
Ġposs ibly
sp ec
Ġprec ise
k a
Ġt un
Ġmar riage
Ġch apter
Ġb le
Ġabs olute
ag ers
ĠHist or
ĠMan agement
pp ing
Ġlif est
ob e
Ġg all
ĠEnvironment al
im er
Ġmass ive
Ġtou ch
9 9
Ġsu c
dition ally
os ph
re ed
Ġar ms
ter ies
3 1
Ġspe aking
ĠA p
Ġch ain
Ġdisc rim
uild ing
be ing
ad d
Ġer a
M y
Ġst ored
Ġsecond ary
Ġrest rict
Ġl ibrary
Ġreg ional
Ġlist ed
Ġadminist ration
ĠM o
Ġimpro ving
Ġpret ty
Ġapp rec
ĠK now
Ġrec on
Ġn urs
Ġd ental
ĠO x
Ġcomput ers
Ġm oon
Ġpo et
and a
Ġb ones
Ġsu dden
Ġworld wide
7 6
Ġw ave
Ġleaders hip
Ġfig ures
Ġ199 9
5 00
ĠS um
ĠT er
on a
ĠM a
ct ic
Ġdi verse
Ġadop ted
Ġact s
liam ent
Ġsurv ival
Ġwarm ing
Ġstart s
Ġreve aled
Ġt al
Ġposs ibility
h ist
ĠComm it
cul es
Ġdatab ase
ĠP ers
Ġprep are
Ġbehavi our
Ġse lection
ag ues
ĠK en
Ġdist rict
ot o
Ġdec line
or ith
ĠD iv
. |
Ġph r
U s
Ġsu itable
Ġveh icles
ĠN ations
Ġexperim ents
Ġposs ess
Ġnet works
if ies
os m
5 5
Ġm amm
ang ed
viron ments
f low
Ġforest s
Ġrepe ated
Ġwild life
Ġst ick
Ġfl ight
Ġcand id
Ġto ler
ĠI N
w ar
y e
er als
Ġpl ate
Ġan cest
Ġmed ication
Ġf ill
Ġag encies
.. ..
ĠFlor ida
Ġmar ine
4 6
hip s
B N
Ġf ab
h ma
4 9
Ġwor se
Ġint ake
Ġind ex
Ġansw ers
Ġcomprehens ive
Ġle af
Ġcop y
Ġun less
av a
L E
Ġlandsc ape
in i
Ġr ub
Ġwind ow
u a
Ġcreat es
C S
k i
Ġmanufact uring
Ġrout ine
Ġachie ved
Ġpre m
ĠCanad ian
ot ed
Ġread ers
as ive
Ġext ensive
oc racy
ber t
n o
Ġm ur
S ee
Ġab und
rop ical
on ia
Ġs ell
Ġdep os
st ruct
Ġlat ter
Ġvolunt e
Ġbat tery
ĠSc ient
al ysis
le ments
ĠCol umb
Ġmin im
as p
as er
ĠComm on
Ġcar s
app ing
R e
n ormal
Ġexpress ed
Ġass istance
Ġshe ll
Ġaccount s
Ġsur f
Ġmount ain
Ġtro ops
Ġhapp y
Ġsurv ive
Ġg ather
Ġrem aining
Ġind eed
g ent
Ġsupp lement
ĠI d
Ġland s
ere nt
Ġcour ses
Ġ3 1
Ġeng age
Ġantib iot
Ġpl ays
r ors
t age
Ġfram ework
Ġ198 0
Ġharm ful
ĠA tt
Ġinj uries
Ġdoct ors
Ġf ell
Ġim per
Ġguid elines
Ġext ended
ĠAn n
Ġprofession als
Ġun iverse
Ġm useum
Ġtw ice
ĠB ro
ab its
Ġt ail
Ġint ellect
Ġsequ ence
ĠG ood
Ġd edic
ĠL eg
Ġswe et
Ġcho ices
Ġw ants
Ġf illed
ar ia
Ġbud get
Ġgener ated
in n
ĠT or
or row
Ġn an
. âĢĻ
Ġhealth care
U R
l ast
Ġaud ience
Ġto w
ĠPro v
S e
Ġed ge
C ont
Ġelect ronic
Ġdo or
ans ion
Ġagree ment
ĠL abor
Ġslow ly
ht m
Ġfail ed
ĠRe view
act s
7 7
Ġsol ve
Ġequ ival
Ġbenef icial
Ġtru ly
Ġcult iv
Ġw id
Ġtrans ition
Ġac celer
Ġsee ing
Ġd ust
Ġa qu
Ġtrans mission
ĠA lex
um s
ĠAn y
ce ived
ĠO F
ash ion
Ġa f
Ġbro ken
Ġt iny
Ġcalc ium
lud ing
Ġaff ord
or ter
Ġch art
Ġb io
Ġsp orts
Ġw aves
Ġimplement ation
Ġp ull
Ġstrugg le
Ġam b
Ġopen ing
Ġst omach
Ġsign als
Ġw ww
b orn
Ġprodu ces
ĠC are
Ġjour ney
ĠI ll
Ġconsist ent
Ġinsect s
ĠR ome
ĠOff ice
og ue
ĠAb out
et t
R ead
Ġre ject
Ġtra um
us ing
ĠUS A
Ġfound ation
ĠTh ose
n y
Ġmult i
Ġeth nic
Ġa x
Ġstudy ing
Ġobt ain
Ġun known
Ġrem ote
b ody
Ġmain tenance
ĠY et
Ġ >
Ġsch olars
Ġperman ent
Ġloc ations
u nder
Ġlabor atory
Ġchild hood
Ġc atch
Ġth or
es ter
Ġl ots
Ġdisc ipl
Ġen vironments
Ġcl oud
Ġder ived
Ġair craft
ĠT HE
m ary
Ġcircumst ances
ig ation
Ġman aged
ĠAustral ian
ĠOn ly
Ġac ids
Ġdec ade
Ġen able
it t
g ans
Ġsk ill
op y
it ative
ĠD an
Ġfl av
ic ians
C T
Ġdec ide
in ating
Ġh us
Ġgreat ly
Ġch olesterol
Ġdesc ription
Ġste el
Ġf ly
ĠV ict
St ud
ar ant
ĠJose ph
âĢĻ ,
Ġtell s
ĠGl obal
if orm
Ġgra v
a it
ĠL ong
Ġmar ried
rib ed
w ing
4 7
ind er
Ġs od
p et
Ġnew sp
Ġd aughter
ĠEx pl
ĠTh rough
z en
Ġsuccess fully
Ġw ish
Ġrespons es
Ġsent ence
Ġout l
Ġ199 8
ĠF e
Ġopt im
in ity
Ġd in
ĠCh ic
Ġc art
Ġfix ed
ific ations
Ġdoub t
r ont
Ġa er
ct ive
Ġindic ates
ĠProf essor
Ġ5 00
r us
Ġra w
ic ide
Ġmechan ism
Ġsh aring
Ġcirc uit
Ġcult ures
N ot
Ġcomp r
e per
Ġalg orith
in ction
Ġinter vention
Ġrepl aced
b ut
f rom
Ġvessel s
Ġopp osite
Ġconstit ution
Ġrepresent ed
g u
Ġf iber
Ġbe ar
ĠDes ign
ĠDise ase
ĠL ab
ĠM ad
Ġ3 00
Ġmole cules
Ġmark ed
Ġer ror
Ġreg ul
Ġauthor ities
Ġfoss il
Ġbo ost
Ġun s
Ġf asc
ĠG old
Ġdifficult y
âĢ ĺ
le vel
ĠP eter
ĠS l
ĠB re
Ġsk y
Ġcor n
re land
le ts
i very
is ters
Ġin ner
Ġinteract ion
Ġcare fully
Ġ197 0
ĠK h
it an
Ġorgan ized
ĠCommit tee
Ġgl uc
C an
z il
ph one
Ġult imately
f ish
th rop
E P
Ġcrit ic
Ġprinc ip
ĠS k
E n
ink ing
ĠRep ort
S ince
Ġg al
ipp ing
k es
t ra
Ġd ensity
Ġn erve
ĠSt reet
Ġs ight
oc y
ell ed
Ġyoung er
Ġhyd rogen
ed u
I L
Ġcomp osition
Ġun able
Ġthous and
Ġphilos ophy
t hen
Ġarr ived
Ã ¼
w o
O C
Ġun p
Ġag ency
Ġro of
ĠSou thern
Ġinstit ution
Ġp up
Ġemot ions
ĠC ult
Ġmix ed
Ġw itness
Ġsim pl
Ġdestroy ed
Ġreg ist
Ġconsum ers
Ġp us
Ġconc rete
Ġour selves
Ġrat io
ĠR ad
ĠC a
Ġwalk ing
Ġcoff ee
Ġen ds
Americ an
Ġsh ift
Ġ18 5
ap ed
ĠN atural
B l
ĠStud y
st on
ĠA I
ĠPar is
en a
Ġn ine
w ord
Ġbreat hing
Ġdeb ate
int s
Ġg one
Ġdes ire
ir ation
Ġch osen
Ġimmedi ate
ut s
Ġatt end
Ġve ter
Ġclos er
Ġlist en
Ġlim its
um es
Ġcol our
Ġpar alle
us al
Ġt ank
Ġne ck
r ine
ĠH all
Ġpre val
Ġam az
Ġlifest yle
Ġconvent ional
h and
P e
Ġm ild
Ġpurch ase
f ortunately
Ġreg ulations
Ġrem ark
Ġcom ments
Ġacc um
h op
Ġmechan isms
Ġhand le
9 5
Ġelect ron
Ġpur s
Ġmem br
Ġf alse
Ġstand ing
Ġnecess arily
Ġac know
ĠFr ank
Ġpers ist
Ġdown load
Ġstand s
ĠH ome
Ġref uge
it a
Ġfew er
st one
Ġfound ed
Ġal le
Ġhigh light
t ic
Ġatt ached
Ġm ac
Ġrel ax
ym ph
ĠSt at
r ating
ce l
ĠC at
Ġeval uation
Ġphot ograph
k ins
Ġover l
ir ty
Ġb rand
Ġsuc ceed
Ġterrit ory
Ġfeed ing
rib e
Ġsupport s
ĠH aw
Ġsuppl ies
ĠI P
Ġdedic ated
Ġread er
Ġfight ing
Ġy ield
ĠI reland
Ġv oc
iz er
Ġhe ro
ĠVal ley
se y
Ġjo in
ĠC amp
Ġd ent
ors es
Ġtransport ation
ĠEx p
ĠSt ep
Ġsupport ing
Ġdi oxide
ĠN orthern
ĠE th
Ġbig gest
Ġe ld
c alled
Ġtw enty
cy cl
Ġbehavi ors
Ġknow s
Ġcolle agues
itud es
ste in
ĠCan cer
ĠCl in
Ġfab ric
U N
Ġm ice
Ġinstruct ions
Ġz one
ĠM ag
rit ing
Ġparticip ate
Ġcut ting
h av
Ġwh atever
I P
Ġcar b
ĠP ub
Ġarchitect ure
ĠG al
Ġgre w
Ġfunction al
Ġfeed back
Ġa th
ct or
ter ing
Ġhe m
Ġcompar ison
Ġwrit er
z ed
Ġcont ained
ĠAcad emy
Ġin hib
t op
ri ers
Ġpow ers
ĠD et
ĠAd minist
Ġunder lying
ĠV is
Ġsub s
Ġres erv
ant a
Ġres olution
ĠE xt
Ġcomp ounds
Ġdraw ing
or a
Ġpercent age
iction ary
Ġocc asion
he ast
or ous
Ġun us
Ġorgan isms
ĠEx per
Ġcommunic ate
ĠG et
0 5
on al
r d
Ġhous ing
Ġv ote
Ġsh ips
Ġex ists
Ġun iversity
Ġser ver
ĠF orm
Ġcl ust
Ġst roke
om ic
Ġte a
st ract
Ġacc ident
ĠCarol ina
F igure
b our
ir atory
ĠB ank
ir us
ĠAd d
Ġturn s
Ġb read
Ġt aste
Ġc ats
es is
Ġpresent ation
Ġwill ing
u h
ĠT ime
st s
ut ch
ĠSp ain
a ud
Ġh abits
ĠIt aly
Ġfrequ ent
Ġob esity
Ġhor iz
D P
Ġwhere as
Ġpr on
Ġl ies
ĠS ol
Ġne ur
ĠIS BN
Ġdemonstr ate
s uch
L et
Ġp ool
Ġtra ined
ĠP an
Ġsw im
Ġ196 0
Ġjo ined
Ġvulner able
ĠCol or
Ġp ra
is k
ĠEmp ire
c her
ĠM ill
ir t
Ġexpl o
he ther
br idge
ct ure
ear chers
ĠR ob
Ġmach ines
Ġris ing
ĠA S
Ġimprove ment
est ed
Ġresult ed
ĠRich ard
Ġk it
Ġcont amin
I nt
Ġeas tern
M L
ion e
Ġcompet ition
Ġvari able
____ ____
Ġdeb t
ro vers
Ġc row
Ġgu arant
Ġdemonstr ated
ĠO cean
Ġ199 7
ĠH oly
ĠBo ard
Ġbelief s
ell a
Ġm eth
Ġch rom
Ġb order
Ġpsych ological
Ġr u
ir ds
we ight
Ġgreen house
Ġm ent
st ruction
dition al
Ġpro ve
ic on
ĠE nd
ĠR oyal
Ġe pid
b ra
i h
n ect
ĠO h
Ġmagn etic
ĠB rown
te en
Ġtr ials
Ġdist ur
Ġrecogn ition
et ime
Ġsh ot
Ġsupp osed
rodu ction
Ġt all
Ġleg s
Ġequival ent
Ġconn ections
ĠRev olution
ĠF ort
Ġreact ions
Ġconf idence
Ġte en
c omm
Ġr hy
Ġa str
it tle
ĠSc iences
Ġno ise
Ġsm oking
Ġpre v
Ġadminist r
ab ul
Ġart ificial
wh ile
Ġtiss ues
y les
ĠW ood
ĠChic ago
ic ious
Ġb ot
Ġinstru ments
Ġdef e
e en
hes is
B S
ĠP enn
Ġexam ine
rit is
Ġcr ime
Ġfund s
Ġsh op
el ess
Ġiss ued
ĠC ap
ult s
ĠP ract
4 2
0 1
Ġins ulin
Ġnear by
I G
edi atric
Ġcustom ers
ĠB ul
Ġp air
Ġcapt ure
Ġbl ocks
Ġm and
6 6
Ġst able
Ġhyp othes
ĠâĢ ¢
Ã ³
er ior
Ġvol tage
Ġh ur
Ġsc ript
Ġsur ve
Ġf u
Ġins urance
Ġpart ner
Ġindepend ence
Ġrel ation
Ġpain ting
Ġm old
Ġinteract ions
he red
Â ·
Ġcam era
Ġprogram ming
ar n
ut er
Ġre cept
Ġwas n
pl ant
in ally
Ġd rain
sc ale
it ter
u gh
Ġa head
Ġcon clusion
Ġpolit ics
Ġdel ay
R ec
L ear
Ġdel ivery
Ġobject ive
Ġgener ations
ign ed
h ow
Ġfl ag
Ġdef ine
Ġs ections
Ġsubst ances
ap h
u ps
Ġent ry
Ġus age
ĠW ik
ĠF ree
7 9
Ġman if
Ġdiagn osed
x ts
ĠB ab
et her
anc hes
ĠAg ricult
L e
ĠT imes
Ġm aps
it ivity
ite ly
Ġmat ters
Ġobserv ations
Ġc ards
et ics
Ġch ick
ĠBra zil
ĠS ing
c ons
Ġlay ers
od ing
Ġsh ut
Ġdep artment
ĠSc ott
Ġlegis lation
us iness
Ġfe ver
ever al
Ġarr ange
p read
4 3
Ġpos itions
Ġinvol ving
Ġc m
ol a
Ġbr idge
ĠN ative
ear ing
Ġelect ro
Ġcal ories
Ġr ank
Ġsm oke
ĠG ard
Ġprom pt
Ġemploy ment
ĠMich ael
Ġcry st
Ġestim ates
R C
ak ed
oura ge
F irst
ĠGe org
ĠSc ot
p an
ĠInd ians
Ġsett ings
Ġth y
ĠKe ep
Ġtri p
Ù İ
Ġro w
Ġz ero
ĠC reat
per or
Ġag reed
Ġman ip
Ġsm ooth
ĠSt r
ides pread
Ġparticip ation
Ġcateg ories
as ters
Ġoper ate
Ġc up
and on
Ġco vers
Ġfor get
Ġg ap
ĠE ss
oc ation
Ġdiv ision
Ġm os
Ġadequ ate
os ion
L A
Ġdang er
ish ment
Ġen emy
Ġindic ated
Ġpo ison
Ġput ting
ĠD iff
igh ter
f it
Ġmod e
Ġhold s
Ġb anks
Ġ7 5
Ġb oy
Ġsc an
al a
Ġfl o
ic it
C D
Ġconsum er
Ġgluc ose
ia h
Ġunder t
um ps
Ġcontrol s
Ġassoci ation
du le
Ġevery day
Ġsac r
Ġre ven
8 8
Ġp apers
oc c
Ġso le
Ġinteg rated
ur rent
Ġfor th
Ġor gans
Ġlaun ched
ain e
Ġbr ings
ĠE astern
Ġplay ers
Ġ3 6
Ġsp ok
ĠGu ide
Ġnerv ous
Ġstr ing
Ġfram e
Ġf ract
Ġmat ch
Ġb low
ĠB ig
Ġmaint aining
Ġend ed
Ġrun s
e enth
Ġexplan ation
Ġshe et
p es
Ġrep air
Ã ¶
Ġphys ics
Ġchalleng ing
s he
O f
Ġaccess ible
Q u
y th
Ġ ille
Ġcount y
Ġbut ter
i ability
ab led
ĠW here
Ġstim ul
Ġconstruct ed
Ġmin erals
Ġexp ansion
op ic
Ġhold ing
ĠII I
Ġcol umn
Ġob lig
Ġn one
Ġon going
Ġtrans p
Ġrout e
ĠVict or
Y our
or ph
Ġrel iable
Ġmark ets
Ġf old
ĠD ig
ult y
Ġsp ending
Ġrel ief
Ġv s
Ġsp aces
ĠF ace
ent ed
O ver
c ar
Ġear n
Ġemploy ed
ĠL anguage
g ov
ĠI ss
Ġme al
Ġout bre
ĠCl imate
Ġexerc ises
4 1
Ġlov ed
Ġt ight
Ġr ice
% )
Ġbo ys
Ġt ons
Ġ199 5
ad ing
Ġdom ain
Ġis lands
g ers
Ġdest ruction
Ġm m
Ġcent re
Ġ199 6
Ġneg ot
Ġn ob
ĠIt alian
Ġf ashion
I M
Ġdep art
Ġcommit ted
Ġsc ene
s is
Ġele ction
Ġdra wn
Ġhon or
ure au
Ġprepar ation
he rent
Ġh ole
Ġphot o
Ġwith d
ĠM er
Ġpass age
Ġbur ning
ov en
ars h
ĠH ave
Ġask ing
op les
Ġlegis l
Ġr ivers
Ġa ward
Ġor ient
h tt
io x
Ġs ke
ploy ment
Ġvirt ual
r ite
Ġdi ag
Ġb ond
Ġdam aged
Ġkid ney
Ġ15 0
id ity
Ġne ither
Ġest imate
Ġearth qu
Ġredu ces
ĠIr ish
O L
Ġf urn
Ġhistor ic
O nce
Ġintellect ual
Ġindust ries
Ġr ig
Ġinstall ed
Ġmet ers
ĠKing dom
Ġappro ved
Ġtrou ble
Ġcon ven
ĠP rop
M ed
Ġstrong ly
Ġcoast al
Ġv ac
Ġw idespread
Ġreal ize
Ġcirc le
Ġrece iving
Ġcateg ory
m aking
Ġfor g
Ġcomp osed
ut rition
Ġvirus es
ol n
ĠZ eal
re ated
Ġh un
Ġent ered
Ġt ub
Ġtur ning
Ġte xts
Ġwor ry
ĠServ ices
Ġrecommend ations
ĠY ear
ĠEar ly
Ġmole cular
Ġfem ales
V ID
Ġdesign s
Ġmiss ing
Ġph arm
Ġhus band
abul ary
ĠPart y
Ġst reet
all s
Ġmeasure ments
Ġr ing
ib l
Ġwa it
Ġvictim s
I A
Ġsome what
az ine
Ġdecl ared
Ġb iod
Ġcr im
Ġ3 2
ins on
Ġtra ct
Ġg ram
Ġmoist ure
Ġful f
Ġro les
Ġdoll ars
Ġevalu ate
Ġm ales
Ġpublic ation
Ġparalle l
Ġdist ributed
Ġbreat h
g ical
Ġst re
ree k
S S
op es
R A
ro oms
cycl op
E ven
Ġcont rovers
am ins
ĠE qu
Ġn est
he nt
Ġm ood
ĠS up
Ġbl ind
Ġar rest
acc o
m es
Ġre ly
ĠN az
Ġexam ination
ĠFam ily
Ġint ense
ident ial
Ġmechan ical
ĠC op
D on
Ġbab ies
oh yd
ĠT ake
he alth
Ġsh if
Ġh olid
r ial
re y
Ġseem ed
ast y
ĠFore st
qu it
Ġconvers ation
Ġdo i
ĠP M
Ġrenew able
ĠZeal and
Ġconstant ly
ĠA ccess
Ġfac ing
ĠT V
Ġvari ables
Ġthan ks
Ġproport ion
Ġvol can
Ġc av
ig an
ad der
Ġcomp are
Ġmeasure ment
ĠAtl antic
Ġbe ings
8 5
Ġfac ility
i ological
it amin
is dom
ad ed
Ġk ne
s en
ĠA cc
Ġart ists
Ġfavor ite
Ġh orses
Ġr id
Ġrespect ively
Ġesc ape
ĠTe ac
Ġsee king
Ġmetab ol
Ġarch ae
ĠC y
Ġdepend ent
Ġn ose
th ritis
he imer
Ġsignific ance
op eration
Ġmere ly
vent ions
Ġint est
ort ion
Ġâ Ĩ
ĠJ ac
ĠRes ources
Ġcent ers
ord ers
Ġab andon
Ġp ed
Ġeng aged
ive red
Ġinc red
v a
ĠV iet
ir al
B ecause
Ġoffic ers
Ġout come
ĠMart in
ĠA gency
Ġag ents
ad y
Ġast hma
y al
ĠMore over
Ġf ro
Ġbeaut y
ĠD ar
ĠA ge
Ġsou l
Ġst rict
air y
Ġcrit eria
Ġmicro b
Ġthe ories
Ġs ought
Ġoff ering
M e
Ġpl enty
g s
es ides
E very
Ġrare ly
U T
Ġann ounced
Ġphenomen on
ĠBe fore
Ġpl us
Ġro cks
ĠS at
ĠA P
ĠE ffect
Ġprevent ing
Ġthem e
Ġdis char
r ane
hy d
r ary
ĠS ometimes
Ġaccur acy
ĠAs ian
Ġmov es
al m
Ġbe es
Ġfarm ing
Ġbring ing
Ġcom plicated
Ġac ute
inc oln
Ġsurf aces
Ġmin ing
Ġsatell ite
n et
Ġserv ing
an i
ĠS il
Ġpregn ant
ip edia
Ġd ys
Ġguid ance
Ġown er
Ġcontem porary
Ġconsider ing
Ġpro of
Ġem pt
Ġinf ect
Ġad vert
Ġcollabor ation
Ġdes ired
Ġins ert
ĠH ill
t rans
Ġcomb at
Ġw ound
Ġbi ology
Ġphot os
Ġdef ense
Ġpro hib
ĠTh ough
Ġcl othing
Ġs ession
Ø §
est ion
Ġingred ients
el esc
I R
ĠP lease
Ġsh ock
Ġbre eding
' m
Ġdo se
Ġmaint ained
a ired
Ġt ube
Ġconfirm ed
Ġp ounds
Ġf er
an o
ĠDist rict
ĠE p
Ġfair ly
ĠE U
Ġin n
Ġinfluen ced
Ġexperim ental
Ġinterp re
Ġopp osed
Ġunc ertain
Ġpar as
Ġimplement ed
Ġweap ons
Ġpass ing
Ġnit rogen
ĠSpec ial
Ġim plications
Ġche st
force ment
Ġ6 5
g reg
Ġmess ages
Ġb ath
ollow ing
Ġadvant ages
Ġev il
row ing
Ġcarry ing
ĠR om
ĠChe ck
Ġ id
Ġhe ating
Ġab normal
7 1
Ġin her
Ġinf ant
ĠSec urity
v ard
Ġdet ection
ĠL ist
Ġinterpret ation
ex ample
Ġmicro sc
Ġthe ore
ot es
Ġattempt s
Ġcapt ured
Ġmathemat ics
Ġvisit ors
ixt ure
Ġw ine
Ġj ump
ĠWind ows
Ġsc ore
os h
Ġshap es
Ġcrim inal
Ġaim s
A m
Ġcomp ound
Ġdiscrim ination
Ġtele vision
Ġfour th
Ġencoura ged
m edi
Ġsign ed
Ġart ist
Ġwrit ers
ro at
Ġsecond s
Ġmin eral
Ġclaim ed
Ġabs ence
Ġph osph
inc luding
ID S
% .
ĠWh o
Ġess entially
ĠM el
ap se
og ether
Ġknow ing
her ic
Ġmort ality
il ation
ĠH y
ĠP op
Ġar ts
Ġdef end
Ġcomm ission
Ġp ush
ĠPl ant
Ġang le
Ġresp iratory
Ġex clus
ĠW ord
o om
Ġelect ed
Ġconsider able
Ġeffect iveness
0 6
Ġover w
Ġla unch
ĠAng el
Ġit em
ĠL ib
Ġdel ivered
Ġpan el
ĠC ast
ĠCh ange
ĠP olic
Ġrad ical
ol esc
Ġstruct ural
Ġh oney
Ġir rit
Ġimag ine
ĠFurther more
it ual
Ġcl ar
Ġpres ents
Ġprov en
Ġanal ys
rain ing
ĠOx ford
Ġcare ful
ov ascular
Ġsubsequ ent
Ġscreen ing
s m
Ġrem ind
Ġfin ished
Ġclean ing
ĠCo ast
7 2
T oday
ot ype
omm od
Ġre ward
Ġass ume
ĠO pen
am ine
ru ption
ere n
out s
ren e
Ġmin ute
en ess
ĠAm ong
Ġ19 50
it als
ĠAd v
Ġprov ed
ĠG rand
ĠCent re
ĠSec ret
Ġcook ing
Ġfocus es
Ġprincip al
Ġexcess ive
C H
Ġinform ed
Ġgradu ally
Ġra cial
Ġsurpr ising
7 3
Ġstat istics
Ġequ ally
Ġfun g
og a
ren cy
Ġremov al
ook ing
iox id
d f
Ġplan ned
Ġg ut
b ar
Ġt ut
Ġdis aster
Ġde aling
Ġbr anches
em ia
Ġunivers al
Ġl ake
ol ving
Ġtem ple
Ġpro ceed
ĠP et
Ġhe aling
Ġstrong er
Ġl ie
rou s
Ġtreat ing
Ġr oughly
ail ed
ĠHe b
Ġde eper
ĠE st
Ġreg ulation
ĠDo es
8 9
or ic
Ġplan e
ĠS ym
ual ity
Ġsw itch
ĠP o
ĠR esp
Ġtarget s
the less
Ġbi om
Ġter ror
an ing
ĠD en
Ġbr anch
ĠCommun ity
Ġnew ly
ĠL ow
Ġf ed
Ġform ula
Ġcomfort able
ill a
og rap
Ġfil ter
ĠAN D
Ġcre w
Ġtrad itions
ian a
Ġmod ified
O r
p rodu
ĠC re
Ġdifficult ies
ĠColumb ia
ĠV en
Ġdef ect
7 4
S u
ess ions
ĠL ar
Ġelimin ate
Ġc osm
Ġ4 00
ĠNet work
Ġ199 4
Ġla id
Ġtur b
Ġhorm one
t les
z heimer
Ġg ained
ĠArt icle
ask a
ri z
Ġjud ge
ĠChrist mas
Ġflow er
ĠB ill
Ġra b
ĠD espite
ĠYou ng
o ir
Ġinvestig ation
ĠR ock
ĠAdminist ration
Ġsl a
Ġcharacter ized
Ġunus ual
Ġc ash
Ġexam ined
Ġm ic
Ġconcer ning
ĠN on
Ġwor ship
ou red
Ġd ates
Ġch am
pt ions
Ġcomp ens
ĠI ran
Ġgu ard
erson al
Ġteam s
Ġch lor
ĠS ar
ĠM en
ĠF our
Ġord ered
ĠDirect or
ri end
Ġh oles
cl ass
am ing
Ġsil ver
Ġbig ger
Ġassign ed
Ġout er
C omm
Ġpe ak
e ut
Ġprint ed
ĠM ethod
uck y
ish op
C A
ĠF und
ĠKore a
Ġst ead
ict ed
Ġcor rel
ro x
ot ton
Ġconsum e
Ġvar ieties
Ġprom inent
Ġmar ks
ogen ic
ĠSw ed
Ġim aging
ud e
Ġdec or
Ġc ab
Ġamaz ing
r ance
Ġphysic ian
ĠAd ditionally
Ġy e
Ġus ual
Ġobs erve
Ġenc oun
Ġc oc
ĠC ell
ĠW orks
Ġrem ed
pr int
Ġinit ially
ou nce
am ination
ĠFin ally
Ġp it
Ġro ads
ĠM S
Ġsla very
Ġst uff
H D
un icip
el i
Ġneighbor hood
Ġ Ð
Ġmay be
Ġwar ning
Ġserv es
Ġed ition
Ġaccomp an
com ing
Ġg ro
Ġbre ed
at ial
8 6
Ġsatis f
Ġun w
ost on
Ġplay er
it arian
arent s
Ġfall s
ĠInd ust
Ġdem ands
Ġst ores
Ġfac ed
Ġcor ner
ĠM D
ĠL incoln
Ġinnov ation
Ġer rors
ĠS und
act ion
as m
Ġint ent
Ġmus ical
on ym
o ids
ra q
oc ial
ĠT im
Ġsu p
r at
Ġstate ments
C E
Ġtrig ger
ag raph
Ġident ification
Ġsuff ered
Ġsp in
O M
Ġhapp ening
ra v
Ġfl our
Ġc aught
m ers
Ġshar p
ĠSu per
Ġemb ry
e ffect
Ġscient ist
Ġisol ated
Ġdecre ased
Ġkil omet
Ġcl ient
Ġsp ort
Ġexcept ion
ĠSup reme
Ġt ropical
ĠP en
i at
b les
Ġp estic
Ġthreat s
Ġearl iest
ist ical
Ġdiam eter
Ġper ception
ĠW all
Ġsub t
Ġtrend s
Ġcop per
Ġmeas uring
P er
ĠPr inc
Ġvar iation
ĠChrist ians
Ġcere mon
th m
ric ts
Ġconsider ation
ĠJe ff
f ts
Ġany where
Ġind igenous
en ger
Ġcom plications
Ġsit ting
Ġro se
Ġex ceed
ak istan
Ġgrant ed
Ġsubstant ial
N ote
Ġor bit
Ġd rought
Ġdr iven
ĠK ar
ative ly
ĠJ ul
l van
pl ing
Ġvide os
Ġspect rum
Ġlearn ers
Ġconf ig
lish ing
Ġinsp ired
Ġsen ior
ĠS ign
ĠTh ree
ĠDe v
Ġgal ax
Ġdet ected
Ġal ter
Ġlist ening
htm l
Ġfish ing
re qu
ust ain
Ġsche dule
ĠFace book
ĠA M
ĠOrgan ization
ans as
isc o
Ġwind ows
ig ue
im a
Ġam pl
om er
ult ane
ĠV er
Ġf est
Ġsl aves
E d
so ft
og s
ic ing
C omp
Ġtrans lation
Ġoccur ring
Ġreve al
Pe ople
ic ate
ha ust
Ġheav ily
Ġcon j
i ary
Ġflow s
Ġspl it
Ġrec over
Ġed itor
A pp
Ġpl ot
elf are
Ġconclud ed
Ġev olved
Ġdirect ed
Ġen orm
v in
ist ed
Ġover come
ĠL o
Ġprocess ed
ĠAl zheimer
ĠAm az
Ġgra in
Ġcoun sel
as ant
ra ys
ont al
erm an
Ã ¢
ĠSt ar
n ight
it ure
ĠE r
Ġr itual
Ġep is
ĠF ather
ĠI V
qu ir
Ġconf erence
ab eth
Ġcorrect ly
Ġc ort
ĠN ever
Ġdes ert
5 6
othe rapy
ort ed
Ġpo em
Ġs ales
ru it
Ġbacter ial
j ust
Ġadd s
Ġidentify ing
Ġliter acy
Ġ )
Ġchann el
ot al
Ġdynam ic
Ġbl ess
Ġacc ommod
sy lvan
ĠT ype
ost ic
Ġsettle ment
Ġo v
Ġb rows
ĠL iter
Ġst ations
Ġwhe el
Ġab ilities
Ġfind s
Ġcon qu
ĠMin ister
Ġath let
re al
Ġdem ocracy
u rolog
ĠSaf ety
ĠA T
Ġpe oples
ĠEngine ering
Ġad m
Ġar ray
Ġrel ie
Ġexperien cing
Ġdri ver
c hen
Ġn ice
Ġdis rupt
Ġgir l
0 3
? "
ĠC P
S he
Ġag ed
ĠU r
erc ury
Ġper m
Ġsc ar
Ġre ct
ag on
Ġac res
Ġint ensity
Ġ199 2
EN T
ro t
ĠSim ilar
Ġdis abilities
Ġprint ing
ig ate
aw s
Ġas c
Ġag ent
Ġsus cept
Ġgrow s
Ġhaz ard
Ġautom atically
Ġrepresent ation
Ġsun light
Ġg iant
Ġst ability
Ġmount ains
Ġobserv ation
Ġweak ness
Ġvoc abulary
Ġfunction ing
Ġgr id
Ġdiet ary
Ġfat ty
al i
Ġal ph
Ġobject ives
ur a
ie val
Ġb ag
Ġstreng then
C ol
Ġp in
le te
Ġlight s
ĠD ou
ĠS ir
ĠL ead
Ġb omb
Ġview ed
Ġh osp
ĠP ot
A A
d ef
ĠM ult
Ġhe nce
i op
all ow
es h
Ġm ir
E ar
ĠF igure
Ġdut y
Ġun ion
ac ent
Ġvit amins
ĠC ross
Ġregard less
ĠProt ection
Ġsuper ior
Ġl ymph
Ġprov ider
0 9
se ll
Ġhead s
ĠCO VID
Ġwor st
Ġarg ue
C ar
ild ren
Ġcont ribution
g ence
Ġinh abit
Ġemphas is
ĠFor ce
Ġcat tle
Ġasse ts
ĠIn s
ĠM ah
ic y
Ġaut ism
Ġst rain
ĠT re
il a
Ġv an
Ġ3 8
Ġme als
m m
Ġvis ited
Ġaddress ed
Ġre aching
ĠCons ervation
Ġcontribut ed
ĠPal est
Ġpl a
br id
Ġcarb ohyd
ple te
Ġt ong
Ġcall ing
Ġext end
fore st
0 4
Ġengine ers
ĠHeb rew
Ġg ases
Ġold est
G et
Ġeduc ators
Ġl aser
ĠS and
Ġm g
ĠOh io
Ġwrit es
Ġprof it
Ġvacc ines
Ġmod erate
Ġform ing
ĠBat tle
b a
it ory
Ġh idden
Ġregard ed
ĠI raq
Ġquar ter
eg a
Ab out
Ġant ioxid
Ġ3 3
ĠM oon
Ġins ight
ĠCur rent
roll ed
ĠO per
Ġal ive
Ġcommit ment
H A
d oor
ĠN ote
' ,
ĠLear n
Ġpol ar
ĠGeorg ia
Ġinter ventions
at hered
Ġaut hent
sylvan ia
Ġm ouse
Ġr ational
ĠJ o
et te
Ġinnov ative
Ġmathemat ical
d r
ĠQue en
Ġeld er
Ġthere by
Ġsl ave
ir ms
ograph ical
Ġtax es
Ġpan els
pt ic
Ġantibiot ics
ĠW il
ĠRead ing
ĠH ospital
ĠAut hor
h ar
6 9
ag en
re ction
Ġhard ware
ic ular
ant ly
Ġsm ell
ĠJohn son
ang le
ut en
ĠD om
Ġoverw hel
Ġst ake
qu ar
ast s
Ġm ixture
cyclop edia
Ġ199 3
P art
Ġprotect ing
Ġcover ing
ĠG r
Ġres id
Ġra c
ĠDiv ision
et ary
Ġacqu ired
Ġplan ets
ĠRo ad
Ġl es
0 8
Ġille gal
Ġsepar ated
cent ury
ep ing
6 4
M ay
Ġmanufacture rs
Ġmy st
Ġl ists
St ep
Ġun iform
Ġappoint ed
. ).
ĠT om
hold ers
ĠF ire
Ġinter face
he a
Ġpl ain
Ġopp osition
6 8
y er
Ġad vent
ocol ate
ĠB oston
Ġper mission
ail able
Ġsc ores
Ġtrib es
ĠS et
ĠP akistan
Ġdec ay
Ġvers ions
Ġse at
htt p
Ġcontain er
Ġs izes
Ġc ord
Ġpre ced
un a
Ġ4 8
z ym
iz abeth
ne ys
ĠD C
Ġ vel
ĠCol l
are n
Ġphr ase
P re
Ġcool ing
u its
Ġsens itivity
] ,
ert y
at al
iv a
l ines
Ġaffect ing
Al so
Ġf lying
ĠD utch
ange red
use t
Ġcons erv
Ġwhe at
Ġworks he
0 2
Ġsur ge
Ġconcent rations
our se
Ġw isdom
Ġtraum a
Ġchar ged
ad el
Ġad verse
ĠM ath
im ents
ĠL ight
Ġavail ability
Ġsens ors
Ġmos quit
em a
Ġr an
ĠOn line
Ġmembr ane
Ġinteract ive
L ast
Ġpres erve
Ġf ats
ĠH or
ĠMich igan
ĠSt art
ĠUn fortunately
Ġimprove ments
Ġquant ity
ĠH and
P r
C om
end ment
Ġdesc ript
Ġtum or
am ples
Ġ199 1
ĠWith out
Ġexp ed
ĠSp irit
ang er
Ġatt ach
Ġcop yright
Ġparam eters
ĠCh apter
ĠT able
ĠN ov
E E
ĠT op
Ġmother s
ap or
uset ts
Ġtown s
ĠH im
ach usetts
Ġprov iders
Ġt ables
Ġqu iet
usal em
ra ham
as ma
Ġbur ied
Ġfall ing
Ġupd ated
ol i
Ġfar ms
it i
Ġloss es
et ing
Ġbehavior al
Ġcommit tee
Ġaim ed
ĠPl ay
Ġnutri ent
Ġl ip
Ġcomp rom
Ġsim ultane
Ġstop ped
Ġconscious ness
Ġchem istry
r ical
arch y
ip her
ur ches
ĠPolic y
Ġco verage
ĠPre vention
Ġ5 5
ĠIslam ic
N S
Ġrob ot
Ġst ones
er ies
Ġin equ
Ġv en
Ġdefic iency
Ġd ance
Ġintrodu ce
ir th
Ġprogram me
ĠL y
ĠU t
Ġcreat ures
ĠF ind
m od
Ġsc hed
Ġbelie ves
h us
Ġf ra
ĠScot land
9 8
ĠHe art
Ġconsum ed
Ġen ables
Ġresearc her
ĠPol it
ĠAss ess
A B
I F
M P
) |
Ġarg uments
Ġpoint ed
ut ing
Ġsupp lements
ĠChristian ity
Ġp H
Ġk illing
Ġhard er
ĠSp ring
Ġreport ing
ĠL ess
Ġj ur
Ġex haust
H ist
Ġo m
Ġl ens
epend ent
Ġsp ray
Ġcomp ost
op her
W here
ec ess
pt om
Ġcharacter istic
Ġp and
Ġdram atic
al ities
Ġprotect ive
Ġown ed
Ġto b
Ġf inger
ĠT ry
ul pt
Ġequ ation
Ġord ers
Ġnarr ative
Ġhunt ing
ur ning
th rough
Ġlung s
Ġ19 30
ĠP ur
Ġneut ral
Ġthreat ened
u gg
Ġwonder ful
Ġt on
Ġmig ration
Ġfu els
Ġch ap
ĠColor ado
Ġad olesc
ric ted
ĠSur vey
Ġachieve ment
. '
a o
Ġsub stit
Ġfac es
b el
Ġaud io
Ġm ine
ĠHe ad
E F
Ġexc iting
ly mp
Ġc ure
g ien
ad vant
Ġpar ad
Ġkeep s
ĠL ee
Ġsh oot
Ġn om
Ġher itage
z er
k ind
ĠMod el
or ig
Ġther mal
ĠBi ology
Ġiniti ative
Ġro yal
Ġsp r
Ġdeg rad
Ġphys ically
Ġplant ing
ĠPar liament
Ġf ought
J ohn
Ġeven ing
Ġwa iting
Ġhuman ity
Ġcolon ies
Ġcommunic ations
ĠEd ward
as y
Ġfl ash
P ub
Ar t
Ġord inary
gen er
Ġarg ued
ĠW ay
Ġc as
Ġsw it
Ġf ellow
Ġeth ical
Ġher b
Ġsoc ieties
Ġperson ality
ĠCam bridge
ĠPenn sylvania
Ġperform ing
ĠMod ern
Ġste am
Ġch ances
d isc
e or
ĠCh o
Ġreason able
Ġhousehold s
Ġcardi ovascular
Ġlog ic
Ġcalcul ated
ĠB usiness
Ġground s
ap es
Ġoffic er
Ġtechn ological
be an
Ġec ological
H S
Ġexpand ed
C R
Ġelse where
Ġexec utive
Ġinvestig ate
ĠJer usalem
Ġe ase
pl ed
Ġbut ton
Ġveget ation
ad ow
D S
Ġur ine
ut ation
Ġman aging
ĠA L
Ġtob acco
Ġver tical
Ġd im
Ġadv is
ĠG ulf
Ġbound aries
Ġexhib it
w an
ĠR h
S im
Ġpar agraph
Ġd imens
Ġmov ie
ĠPhil ipp
C P
am i
Ġestablish ment
Ġdri vers
b ox
Ġexpect ations
ĠHar vard
Ġdirect ions
Ġdra g
ment ia
Ġse vent
Ġcan cers
Ġcolon ial
Ġanaly ze
B T
ber ry
man n
ĠMass achusetts
ĠAr ctic
Ġd ress
Ġtem porary
Ġprop ag
Ġcy ber
Ġemer ging
Ġgu ess
Ġt or
Ġre verse
Ġstre ets
Ġinc ident
Ġdom inant
Ġge omet
Ġeng aging
Ġent ertain
Ġf ing
Ġliter ary
Ġtrans mit
Ġequ ality
i ations
Ġg ast
Ġproduct ivity
Ġbe at
Ġspok en
y ou
ĠIm p
U nder
Ġst yles
Ġeng ines
el ve
u um
ĠL ittle
Ġheav en
ri x
Ġext ension
Ġvari ations
Ġir rig
ĠC ard
Ġor b
Ġgen ome
Ġadd iction
Ġbat teries
b ell
Ġfocus ing
ĠId ent
us hing
ri ze
Ġf ur
Ġdis m
ĠÂ £
ĠBo oks
Ġline ar
th od
R ef
Ġempt y
Ġgra ins
zy me
5 9
Ġquant um
m un
Ġsod ium
Ġtem por
Ġnewsp aper
at i
Ġwatch ing
ic ian
ĠAg ain
ou l
Ġinter ior
Ġemb ra
Ġt ick
ĠAn alysis
ĠC orn
ĠO tt
O P
Ġatt itude
Ġsent ences
Ġd uration
rane an
Ġox id
Ġcan n
end ar
Ġcorrespond ing
Ġinf ants
Ġexpl icit
ĠI T
ĠSystem s
Ġtarget ed
Ġemot ion
C ons
j o
id al
Ġent it
Ġcustom er
5 8
C o
u an
Ġ ;
Ġsp inal
ĠConf ed
Ġenorm ous
Ġclass ified
Ġbe ans
Ġexpl oration
iv est
ant ed
Ġtell ing
Ġdefin itely
Ġflex ible
Ġcour ts
Ġpain ful
ain ts
Ġremov ing
Ġwebs ites
Ġsc ope
ĠFranc isco
act ions
ĠF ar
Ġcl othes
ĠL ast
Ġcap abilities
Ġdis ability
Ġres c
Ġcl ock
Ġper ceived
ĠConf erence
Ġassum ed
Ġens uring
ĠJust ice
Ġbo at
Ġb are
Ġprior ity
ut her
bor ne
Ġcolon y
0 7
ens ed
) ||
f oot
S m
Ġacc ord
Ġdeep ly
ĠB ack
ĠIs lands
Ġgrav ity
ĠC lick
og y
ĠB al
Ġcra ck
ot ion
as hes
Ġprefer red
h ire
Ġrecy cling
Ġd ense
Ġgl ac
Ġcontribut ions
Ġref erences
Ġconver ted
ig er
hem istry
Ġdeterm ining
' .
A re
Ġmind s
Ġer u
Ġaccompan ied
Ġw ider
Ġ3 7
Ġfe els
Ġt ip
% ,
ĠO lymp
Ġf o
Ġmy self
Ġent ering
Ġbiod iversity
ip e
Ã ¤
ĠR NA
Ġsav ed
are t
Ġh all
Ġpil ot
Ġprom ise
Ġunivers ities
b ec
Ġsett led
Ġlow est
ĠS S
Ġsum mary
Ġdifferent ly
Be fore
en ced
Ġfat igue
Ġ3 9
Ġg ent
C L
if ice
Ġstri ke
Ġl ibr
Ġcontin uing
Ġastr onom
Ġprob ability
6 7
Ġab stract
Ġshap ed
Us ing
Ġmarket ing
Ġt ens
Ġrequire ment
Ġlif etime
Ġadapt ed
ĠO bs
Ġd ies
ĠD own
Ġ9 5
Ġremark able
Ġpoet ry
Ġf et
Ġprov ince
ĠEl izabeth
Ġpass ion
Ġecosystem s
Ġcon clus
te xt
Ġatt ribut
Ġt ort
Ġev ident
Ġs ad
ment ation
Ġsustain ability
Ġfacilit ate
E G
Ġnot ion
bo oks
Ġmet als
w orld
Ġviol ent
Ġclass ical
pl ay
Ġhorm ones
Ġc ow
ist ant
Ġact ing
Ġdist ricts
Ġmanif est
Ġbe e
Ġpromot ing
en cing
Ġphotograph s
ful ness
Ġdr inks
Ġch air
ĠE PA
Ġtrans mitted
ĠB u
Ġcollect ive
Ġwe igh
Ġr anging
w ords
Ġcl ub
Ġtrans c
ĠB ang
hav ior
ĠP oint
Ġp y
im p
ĠM ur
Ġsong s
Ġsafe ly
Ġt rick
Ġwithd raw
w as
Ġman ager
ivest ock
N e
ak a
Ġpre y
Ġpsych ology
ail ing
re f
k et
Ġlo ose
ou ds
ĠEc onomic
Ġint ention
E ach
eut ic
Ġapp lying
ĠOr ig
Ġinteg r
ĠHaw ai
6 3
J ust
Ġl osing
Ġf ires
Â ®
m ade
ĠD O
ĠInd eed
ĠB a
Ġag ing
k l
ĠJac ob
Ġexist ed
Ġmar g
Ġrepresent ative
ĠGree ce
Ġneur ons
se ction
Ġapp eal
oper ative
ag an
Ġass ert
ĠO l
Ġgod s
ĠL in
ĠF act
5 3
Ġocc as
Ġpray er
ĠW al
Ġhabit ats
ĠAs se
Ġenter pr
Ġp ill
Ġlab our
Ġt ack
the w
yth on
ick ing
Ġsp ots
ment ed
Ġd airy
olog ically
ĠAmaz on
Ġf isher
ĠSen ate
Ġwould n
Ġprof ile
Ġbeg un
Ġdev ast
Ġc raft
Ġra ising
Ġco at
ĠC r
rou d
ĠP ass
Ġas p
er ts
Ġvirt ually
Ġc otton
Ġst ood
Ġdiff er
! !
ĠC irc
Ġserious ly
spec ific
Ġbu ff
ĠNav y
ĠPro cess
Ġking dom
ĠLabor atory
Ġcelebr ated
Ġagg ressive
Ġg if
ass ium
Ġinteg ration
ĠS aint
f ast
Ġcon vey
Ġcomput ing
ĠTest ament
Ġsc ulpt
Ġconst ra
ĠWild life
Ġs essions
Ġth read
ĠT O
f eed
f e
us ive
ĠCont in
us cript
ino is
z o
Wh o
Ġapparent ly
Ġlimit ations
Ġun n
Ġchrom os
Ġnutrition al
ĠWik ipedia
Ġt ension
Ġob st
ĠL os
Ġhypothes is
Ġsymbol s
Ġbar rier
ĠSund ay
Ġcomplex ity
Ġpurch ased
Ġclass ic
Ġpup ils
ĠAgricult ure
Ġbar riers
aw are
Ġm ature
Ġpriv ile
M A
Ġ3 4
Ġtong ue
Ġcl ients
Ġvict ory
st ant
Ġ20 21
Ġbal anced
Ġt ab
ĠM oses
ce ans
ĠF red
ĠC ub
Ġliter ally
Ġvers us
Ġstrateg ic
ĠBl ue
Ġm unicip
Ġd il
Ġar med
Ġvir al
Ġt one
Ġdi arr
5 2
S ec
The n
20 10
Ġ19 20
ĠMuslim s
Ġc ul
th is
Ġsu it
s or
ay a
ĠSt an
Ġfriend ly
Ġcon vert
Ġgra des
Ġw elfare
Ġwe aring
Ġeng agement
Ġsens or
am il
Ġ198 9
l ights
Ġw at
Ġoccup ied
d ep
Ġs ulf
ĠC ode
Ġloc k
Ġfr ust
un ning
ĠCons ider
in er
Ġact ively
Ġdiscuss ions
Ġpreval ence
Ġch ose
p ress
ĠPh ot
ĠP u
Ġacknow led
Ġear s
Ġp ione
ĠS P
Ġat oms
Ġsche me
aw n
Ġread ily
Ġresist ant
Ġpost s
a fter
Ġen zym
Ġimmig rants
um er
ĠD rug
c ule
D espite
Ġw ars
Ġbre aking
ĠH a
Ġsol ving
it ting
est ions
Ġsh ore
Ġh at
un c
Ġtre m
Ġcreat ivity
ĠKe y
Ġha ven
Ġrest ore
ĠAv oid
Ġg athered
Ġant icip
Ġjoint s
aw a
Ġcontroll ing
Ġre aches
Ġdevelop s
Ġopin ions
Ġju ice
! âĢĿ
ĠM ove
Ġrec re
Ġnot iced
r h
Ġreal ized
Ġc rown
il st
ĠS ection
Ġal ign
Ġsp an
Ġt act
ic o
ĠS olar
Ġco operation
om al
ĠM ax
Ġth roat
Ġasse mbly
adel ph
Ġcont ents
' d
ĠG ar
Ġfund ed
Ġemer ged
Ġres il
ol t
ĠP age
Ġreturn s
Ġs oph
g a
Ġh al
Ġman ual
Ġsac red
Ġam ino
ĠCon vention
Ġexpert ise
Ġg um
Ġs aving
Ġor ange
ob ile
cl aim
Ġt ap
Ġreplace ment
ĠPort ug
ĠDig ital
ne um
E ng
Ġperson nel
Ġcell ular
Ġcelebr ate
s we
Ġsh orter
Ġg ly
Ġinvolve ment
Ġmeaning ful
Ġt elesc
Ġs hed
ĠInc re
ĠS everal
Ġholid ay
f riend
ĠI D
ĠDan iel
m ail
Ġp airs
Ġver b
ĠTreat ment
L ike
Ġorig ins
ĠM ach
ĠR ail
pl o
ĠAb raham
Ġhyd ro
U se
ĠR am
ĠCh ief
ĠC E
r in
ĠAs k
Ġ194 0
if ier
lect ed
ĠG all
T H
Ġte ens
Ġpe er
Ġc ough
Ġan ger
Ġvolunte ers
ĠR ight
iz ers
Ġunlike ly
Ġpro x
ĠL im
Ġhand ling
Ġdigest ive
Ġ1 20
ĠN O
Ġowners hip
6 1
Ð °
al so
S P
ĠT own
ĠN ob
Ġassoci ate
Ġadop t
Ġcould n
c ut
T ra
Ġ ×
ol s
Ġdef ault
ch o
Ġlight ing
ĠAlex ander
Ġpay ing
ĠEgypt ian
Ġscen ario
o ons
Ġsp oke
ic ts
ater al
Ġj oy
Ġpen et
Ġspec ified
Ġaut o
osp el
R ep
iter ranean
ĠF il
Ġspecial ized
ru e
Ġdisplay ed
at us
Ġfore cast
c in
Ġse es
Ġbreak s
Ġstream s
Ġrepresent ing
f unction
g reen
ch ain
S ource
Ġc ub
agn etic
ĠViet nam
20 11
adelph ia
oc ity
Ġal arm
Ġenjoy ed
Ġmamm als
ĠIss ue
is d
ĠM ess
Ġind irect
Ġcho osing
Ġp el
Ġent hus
ĠIm pro
Ġch ocolate
Ġche ap
Ġveget able
od ed
iz z
Ġalgorith m
ĠIn vest
Ġsav ings
Ġ ^
Ġcomp ass
-- --
Ġspace craft
ond ay
Ġre ign
Ġut ility
ĠHer itage
Ġevery where
Ġpract ition
ĠH T
Ġrec ording
Ġsleep ing
Ġo l
ĠBe ing
Ġleg it
ol k
ĠK ent
ĠF arm
Ġcirc ulation
Ġdra ft
acks on
row th
G l
Ġaddress es
Ġun cle
ov es
ĠAnd rew
Ġreflect ed
Ġpresc ribed
5 4
Ġde ploy
ĠI ce
20 12
Ġvar ies
ĠTem ple
ĠH indu
Ġadv ances
Ġg ift
Ġt ill
sh aped
Ġann ually
ĠMed ia
th ur
Ġasse mb
R el
ĠK ids
Go ogle
Ġs ale
Ġcompet itive
Ġper mit
ĠV itamin
Ġfin ish
Ġcl ay
Ġhapp iness
on ents
à ¥
re ens
Ġdro pped
Ġsc iences
ĠPer haps
og ens
Ġsu g
u ity
Ġto mat
Ġben e
Ġdesc end
ĠSecret ary
O D
Ġch urches
: ||
Ġto m
ĠC reek
ĠN eed
ict ions
ĠMus ic
Ġble eding
ĠTur k
Ġplant ed
ĠFr id
Ġref used
Ġoutbre ak
Ġdis advant
Ġmin imal
Ġlog ical
Ġvar ied
Ġexpl oring
Ġbur den
oc ated
Ġimp air
T wo
Ġ ?
Ġo ils
ĠIll inois
Ġinc ent
Ù Ħ
Ġs ons
Ġanaly zed
Ġconvers ion
Ġmax im
Ġas h
Ġabsor b
Ġvis its
Ġrest aur
Ġpartners hip
Ġgradu ate
Ġsc at
Ġtransfer red
Ġearthqu ake
Ġqual ities
Ġinv asion
Ġbas ically
Ġcur ve
Ġso ils
chn ology
Ġw ing
U L
if er
ot ypes
ĠAr ts
Ġpu zz
Ġdevelop ments
Ġsp atial
Ġar ise
Ġsurpr ise
Ġmetabol ism
Ġtra ce
ĠM id
Ġhosp itals
ĠC apt
Ġv ibr
ĠU V
Ġtra its
Ġreve als
Ġpriv acy
ĠA st
out heast
Ġp ace
ĠA R
Ġd ict
ĠB uilding
Ġreg ime
B M
Ġover view
Ġgard ens
i ro
ĠHel p
am ps
m ond
ou ri
Ġspecial ist
ĠMexic an
6 2
Ġrest oration
Ġfac ulty
ent er
ĠB ureau
gh an
ĠComm ons
ĠS on
Ġcalcul ate
Ġmor ph
l ock
s ub
Ġo ste
Ġbene ath
Ġcur rency
Ġest ate
m ia
Ġ ion
Ġpass es
br is
Ð ¾
Ġs ister
ĠSm all
Ġp ets
Ġro d
p ower
ĠV e
Ġpres erved
Ġbu ying
G e
Ġsur gical
ĠCent ury
ils on
ĠStand ard
ys ical
Ġdiscipl ine
Ġgl obe
Ġt ends
ĠH ard
Ġpr ime
Ġins ights
Ġprof ound
Ġre ef
Ġsc r
Ġdi pl
Ġdocument ed
P lease
Ġident ical
Ġevolution ary
ĠD ictionary
ĠAnt ar
Ġt u
Ġmeet ings
ac les
Ġde mentia
G E
Ġposs ibilities
Ġd ating
Ġcor on
u is
er ally
Ġult imate
Ġwas h
ira ble
Ġpaint ings
ĠHistor ical
p re
ĠA ff
Ġrequ iring
Ġmedic ines
ur able
ĠBl ood
Ġprepar ing
Ġwork er
Ġatt itudes
m ble
op l
quir y
es ium
ol er
ane ous
v ation
ĠM ajor
ad or
Ġz ones
Ġpow der
Ġrul ed
Ġaccompl ish
Ġpand emic
Ġproduct ive
Ġregist ered
200 9
Ġchick en
b ury
Ġw al
ĠS qu
Ġhy gien
P ost
Ġillness es
Ġsudden ly
Ġinc idence
ol ine
Ġinflu ences
rep rene
ri p
Ġc ited
Ġb ought
ul ed
ment al
ĠL i
Ġattempt ed
ĠH um
Ã ±
Ġbe ars
ĠMed iterranean
Ġminor ity
Ġsh r
sc ience
reg on
Ġthem es
Ġstr ange
Ġperfect ly
Ġb orrow
ĠM A
Ġnut s
Ġsub sc
ĠNe xt
E A
Ġinv ention
ĠCol on
b ered
el ly
ĠV an
Ġher self
Ġpartic le
Ġres erved
Ġaccur ately
Ġaccept able
Ġmagn itude
M ar
Ġw ise
ater nal
ĠEn cyclopedia
ĠC ost
Ġro oms
Ġsw elling
Ġdistingu ish
Ġrestrict ions
Ġf t
Ġdevelopment al
ĠT H
ĠC T
Ġsu icide
ugh t
pr ing
app ed
Ġfif th
ok ed
Lear n
ĠInd ones
Ġcop ies
Ġs ending
Ġper t
Ġemb ed
ry pt
ĠMin istry
ĠD ie
Ġentit led
Ġconflic ts
Ġancest ors
im m
ĠL ew
ric ks
20 13
Ġquant ities
Ġcry pt
riz ona
Ġin ev
Ġl ivestock
Ġappl ies
w estern
ĠO ffic
ast ics
Ġaddress ing
Ġcontribut ing
ĠA ction
9 3
aterial s
ter ior
Ġ( âĢľ
Ġne urolog
Ġput s
Ġmotiv ation
Ġdiv ine
5 1
ibl ical
Ġwork place
ian o
ĠF air
pect ives
ĠH it
Ġmod ule
Ġshe ep
ĠC A
Ġcons ent
Ġbe ach
a is
Ġen cl
S cient
ĠO nt
ol ves
Ġsus pect
Ġv ig
is ations
olog ic
Ġconsequ ence
ce ive
Ġjud gment
Ġdesign ated
Ġvill ages
ĠD esc
Ġsuscept ible
o is
Ġdem ocratic
Ġwood en
Ġh am
p df
ĠL ater
Ġopt ical
Ġvary ing
Ġin herent
Ġassign ment
ra ine
Ġelect ions
Ġl akes
Ġdi ets
Ġinhabit ants
200 8
Ġiniti atives
Ġprec ip
Ġle cture
or us
b ow
oc a
se x
Ġtrans plant
ĠPhil adelphia
Ð µ
Ġdis ag
g ments
ra it
ĠAll ah
iss ance
ĠF ield
d i
Ġre vers
iss ipp
Ġmer ch
9 7
s ur
ĠW hether
Ġfav our
Ġther m
Ġsepar ation
Ġsever ity
ab out
ĠH ence
Ġisol ation
Ġout door
Ġref lection
Ġinst ances
ĠD iet
Ġinv asive
Ġh ier
r ust
av en
erv ing
Ġreg ulate
Ġdimens ions
ab b
ĠOb ama
pl ate
rit ten
Ġc able
w orth
Ġal ert
Ġcap s
Ġ4 2
Ġtot ally
Ġpredict ed
st ru
. ),
Ġchann els
S ub
Ġd imin
Ġen zyme
ru b
Ġrest ricted
in th
em ies
reg ular
Ġprov ision
ĠWh ich
ĠÂ ©
qu ality
Ġse gment
ĠN orm
ide o
200 6
5 7
Ġdis h
Ġelectr ons
ĠLe vel
am ic
Ġcy cles
Ġunder ground
end a
Ġbl ank
ĠM ain
ig ious
ĠTr ust
Ġoper ated
Ġestablish ing
Ġfasc inating
Ġint ra
Ġreprodu ctive
Ġdram atically
Ġ( "
Ġcitiz en
Ġtheore tical
ĠWe ek
Ġdut ies
Ġtra il
Ġpay ment
Ġcorpor ate
P s
Ġne ural
ĠCon nect
Ġsimultane ously
Ġmem or
Ġhon est
ist ing
ĠTh anks
av ed
9 2
Ġtransl ated
Ġman agers
Ġabsolute ly
Ġdistur b
Ġcal m
ĠOf ten
Ġsc ales
ĠAre a
ĠMicro soft
Ġanalys es
Ġl ob
ĠFrid ay
D L
Ġb onds
Ġcandid ate
Ġphilos oph
red it
Ġcomp os
Ġph ones
T able
in ces
Ġ2 50
Ġper pet
Ġsurround ed
Ġrob ust
Ġ198 8
Ġas ide
el ing
ĠE ll
Ġar thritis
Ġopt imal
ĠKore an
Ġminim ize
Ġregul atory
ustain able
Ġbro ke
Ġd ried
Ġemp ire
Ġatt ributed
Ġdist inction
ĠAngel es
om eter
Ġg ate
Ġattract ive
Ġtum ors
Ġengine er
Ġabund ance
iv ation
Ġbi as
Ġu l
Ġincorpor ated
ĠM ic
Ġpl ates
ĠSt ation
Ġcomb ine
Ġsatis fact
ĠD am
Ġdist ant
Ġrhy thm
Ġrel ate
Ġal umin
ĠB ased
h an
ĠP ain
ĠF DA
Ġcut s
. ||
Ġpain ted
Ġsem i
9 6
K e
et he
Ġsubs id
z one
Ġenzym es
Ġin ch
ro se
ĠE mer
pro fit
Ġsch olar
Ġman uscript
N ational
Ġstat istical
" )
Ġhy brid
ĠC H
s k
ĠL ine
ĠL uc
ĠJ ackson
Ġvis iting
Ġswim ming
Ġ1 000
j i
Stud ents
ĠPro ble
ug s
ĠH aving
Ġcert ific
Ġmetab olic
ĠTur key
ne a
Ġb ull
Ġamong st
Ġabandon ed
ĠN utrition
ĠSch olar
Ġprop osal
w a
Ġpro l
Ġext ens
ĠRem ember
ab ling
Ġr ib
Ġencoun ter
ĠâĨ ĳ
ĠS anta
Ġleg end
Ġpros per
ĠM aster
Ġde bris
Ġst er
Ġcre am
Ġpack age
Ġefficient ly
Ġreven ue
p age
Ġelev ated
Ġh o
Ġth irty
du ction
Ġdischar ge
iv ities
B I
p os
ĠUn ivers
ck ing
M an
an while
ĠF ed
Ġdepos its
Ġconf usion
e em
Ġelement ary
Ġw ings
om ed
er as
oc ument
Ġaltern atives
ĠV iew
or ters
Ġprecise ly
Ġmist akes
Ġflex ibility
Ġsurve ys
O s
R eg
h ost
ous es
Ġmin ister
Ġf raction
cept ions
Ġfil ms
Ġoccasion ally
ec onomic
P R
Ġr ough
Ġsum mar
Ġl ingu
Ġpers u
AT ION
Ġexc lud
ĠO regon
Ġencoura ging
Ġdiag ram
issipp i
Ġele ph
ac le
Ġn oun
et ically
ĠD ue
ĠF ish
Ġcontin ent
Ġcandid ates
Ġreg ister
Ġneigh b
Ġr anges
e ven
ĠC rit
Ġdo ors
ur d
Ġhop es
Ġbot tle
U p
Ġcr imes
ĠAsse mbly
O W
Ġer osion
ĠPl ace
Ġthan k
Ġrem em
st ers
Ġpe ers
Ġst ere
Ġdynam ics
Ġelder ly
rop ol
Ġbra ins
Ġrepe at
Ġper f
Ġreason ing
He alth
C lick
Ġgl ob
Ġre h
Ġabsor ption
ĠP oly
Ġend ing
Ġarr ival
ĠJ r
lect ric
Ġrain fall
Ġprev ents
Ġsurv ived
b est
Ġen forcement
ĠB M
Ġimag ination
Ġcam ps
ur se
ĠPhys ical
Ġsed iment
Ġb ags
ol ph
Ġg est
ov ing
Ġbr on
Ġcontain ers
Ġinstall ation
nes ota
ĠR est
F ig
Ġadop tion
Ġreflect s
ĠMiss ouri
R em
Ġmur der
Ġpred om
Ġpopular ity
Ġfib ers
ĠMar ine
ĠO p
Ġrespons ibilities
Ġf ant
Ġ4 4
Ġval ley
ric ane
ool s
f ly
Ġw age
Ġtreat y
ĠP ope
3 00
n ia
eg in
Ġf an
Ġstra ins
A ut
Ġrel ating
Ġpl asma
eng ers
Ġtend ency
ĠM ot
ĠPro duct
Ġsuggest ing
Ġspeak er
Ġrese mb
Ġh urt
Ġcl ouds
rib le
Ġsens ory
200 7
Ġlic ense
Ĥ ¬
Ġsym ptom
Ġso y
wh o
Res earchers
Ġe rect
Ġmed ieval
Q L
ĠAl aska
v i
ĠPe ace
Ġkne e
Ġsp ons
Ġint r
Ġcollect ions
Ġthy roid
Ġwhen ever
ĠB ern
ĠAd am
exp ected
Ġpen al
ĠN eg
Ġdiv ide
Ġspread ing
ĠTw itter
it ic
Ġtrans formation
Ġwid th
Ġallerg ic
Ġtra ding
Ġallerg ies
Ġmole cule
Ġpestic ides
or i
Ġd oses
ĠP L
Ġcan al
Ġr h
Ġalong side
is ons
Ġdis k
Ġexpand ing
ĠL at
Ġachie ving
d ate
Ġirrig ation
Ġgra d
ĠSupp ort
Ġo w
Ġrefuge es
d a
ĠA rizona
Ġcollect ing
ff e
Ġexc av
k er
Ġcomple ment
Ġorgan ism
Ġappro val
Ġpip e
Ġc odes
Ġincorpor ate
Ġt ag
ĠW riting
II I
Ġm ask
ill ance
ĠL ook
Ġt anks
Ġabund ant
Ġv om
Ġextra ord
Ġh ung
Ġsoc io
Ġtherap eutic
Ġcham ber
ĠB ush
Ġclass ification
Ġend angered
Ġinvent ed
Ġsurpr ised
eli hood
igh th
An y
Ġcele b
ĠGard en
er b
Ġple asure
Ġ Ø
ĠA C
ĠUn like
Ġcal endar
com p
Ġemploy ee
Ġ6 00
e fficient
ĠS us
Ġsequ ences
ĠBudd h
Ġjur isd
le ar
Ġ20 22
Ġburn ed
Ġso vere
ĠPh D
Ġo ceans
Ġse al
ri um
Ġguarant ee
Ġh oly
ath an
Ġbrother s
Ġdescrib ing
Ġaccount ing
Ġbound ary
Ġdent ist
in ates
Ġland ing
Ġsurv iv
ĠStand ards
est hetic
Ġsub mit
Ġar c
Ġpart ly
Ġrec all
Ġver te
Ġp ine
res hold
Ġbe et
ĠAs h
Ġcontamin ated
is ition
Ġconsum ing
Ġst abil
ĠB rain
ĠCor por
ic ations
Ġgra ms
Ġkilomet ers
T A
Ġm uc
ĠR ather
ĠAssess ment
8 7
Ġadolesc ents
Ġpot assium
Ġsynt hetic
Ġhealth ier
istic ated
Ġl oud
Ġmut ations
Ġsect ors
V iew
ĠO S
Ġwe aken
Ġb inding
Ġf iction
ent i
Ġse w
Ġra ys
Ġfing ers
ĠGu ard
Ġgram mar
an z
ric s
Ġconf ident
Ġconsist ing
Ġtw elve
ik a
Ġsal mon
Ġphysic ians
Ġconsist ently
Ġsuggest ions
Ġenh anced
Ġatmosp heric
Ġwind s
r ons
ĠS ud
ĠAn cient
Ġpart ial
Ġsystem atic
ple x
Ġmy ster
f ound
ay er
the y
Ġbus y
Ġl un
ĠWilliam s
Ġun em
ĠMount ain
Ġutil ized
ĠMary land
imens ional
health y
orig inal
Ġrece ives
Ġpun ishment
Ġt ough
Ġconclus ions
ĠO cc
Ġhoriz ontal
á ¹
orm s
ĠI de
ub ble
Ġdevelop ers
Ġcivil ization
Ġbr ush
Ġintegr ity
Ġs elling
Ġc ig
Ġcoll apse
C he
Ġm ile
Ġoff ices
Ġdiagn ostic
A c
ow ered
ĠOnt ario
Ġab ol
Ġvacc ination
Ġpro long
ĠN ic
Ġvel ocity
Ġcont amination
Ġde er
Ġpost ed
Ġ198 7
Ġsc hem
Ġinj ured
iv ate
Ġoffic ially
ĠEm peror
Ġprov isions
Ġmag azine
ĠThe ory
Ġrep et
Ġmem ories
Ġequ ipped
Ġh ol
ĠA k
Ġprodu cers
Ġaff airs
. :
at oes
ĠM rs
ĠChar l
ĠSchool s
Ġeat en
Ġeconom ics
ĠB ell
ĠV ar
Ġbroad er
F inally
Ġth row
st ep
Ġabsor bed
it ate
Ġnurs ing
Ġdefin itions
R S
ra id
ĠPr ince
Ġstru ck
ĠHit ler
Ġw ake
Ġg erm
ĠMiss issippi
ĠCor ps
Ġ8 5
aut hor
o a
Ġp ale
ĠBet ween
Ġd ying
it us
Ġfat al
en h
v ae
Ġ198 6
ĠCD C
ot ing
ult ure
c al
Ġlik elihood
ĠOther s
Ġent rance
ar ks
Ġrep utation
Ġn odes
ĠPract ice
ĠW atch
ĠK n
Ġapprec iate
2 000
Ġphenomen a
ĠM ind
Ġp ose
akes pe
8 3
ip ation
ĠP DF
Ġse iz
du ate
Ġexp ort
Ġval ve
ĠPh ilos
Ġathlet es
ĠM other
Ġfit ness
W ill
Ġb orders
ĠB est
ĠW ed
ĠMin nesota
ut ical
Ġpart ially
Ġworks hop
epend ence
ĠCult ure
Ġorient ation
Ġadministr ative
ĠP ut
ĠF er
ĠMars h
ade qu
Ġimpro ves
amm ad
em or
ĠL og
Ġre nt
* *
c led
de velop
i ac
l aw
Ġbe ll
Ġret ain
akespe are
Ġsh oes
Ġca ve
ĠJ ack
Ġpoll ut
Ġatt ended
Ġevalu ated
as hed
ĠSt ory
Ġtow er
Ġexhib ition
um ns
Ġarg ues
Ġseason al
Ġplatform s
Ġassess ments
yl on
Ġsome where
ĠOr der
Ġal tered
ĠComp uter
Ġwel come
Ġsubsequ ently
Ġan throp
ook ed
ore r
Ġagg reg
ĠS elf
ĠGovern or
ĠNet her
Ġshel ter
art en
Ġsp ine
R NA
Ġcy l
ĠW ilson
Ġp od
9 4
ct ors
ps y
Ġchar ges
Ġstri king
ĠO s
Ġp ond
Ġimp r
Ġfin ance
ĠBer lin
ĠS av
ĠClin ical
Ġp ediatric
l ist
ĠGerm ans
Ġattribut es
ay lor
Ġattack ed
Ġlib eral
ang el
Ġp roud
Ġsym b
ĠSh ould
200 5
Ġrepresent atives
Ġadj acent
Ġkit chen
nt il
Ġflav or
Ġon set
Ġflu or
per t
9 1
ĠN OT
C op
Ġacc idents
gra de
os aur
ĠE S
P L
ĠT urn
thod ox
Ġsh ares
P V
Ġfact ory
ĠApp le
ct u
Ġinfect ious
im en
ĠR en
Ġfertil izer
y es
erm at
Ġshe ets
Ġ ~
C al
d ess
ĠL ocal
Ġtrib e
Ġstra w
f old
Ġgra y
Ġfree ly
Ġaward ed
Ġbl adder
Ġbl o
on in
th ood
ĠAf ghan
c or
Ġlo op
Ġmal aria
Ġ6 4
Ġ194 5
Ġsacr ifice
Ġtrack ing
ĠM ap
Ġf les
ĠP aper
Ġconven ient
Ġche ese
Ġstret ch
Ġm issions
Ġcl oth
Ġlibr aries
Ġ `
Ġv ine
in ery
Ġsett lers
ĠTeac hers
an ol
Ġdep r
Ġhome work
ĠST EM
Ġwire less
Ġnum er
af e
Ġdr ives
ĠSt ill
com pass
Ġfore ver
Ġrad i
ĠCar ib
Ġtoler ance
Ġassist ant
ob ic
Ġoper ational
el a
ber ries
ac on
ard ed
Ġcont rad
Ġoccup ation
ap ing
Ġprevent ed
Y es
j ud
ĠSc ript
Ġappoint ment
Ġalgorith ms
ecess ary
Ġpass word
ĠTh ird
yp ically
ari os
Ġdes k
Res earch
ĠD yn
in ch
ge bra
Ġre nder
Ġdel iber
Ġimplement ing
Ġn inet
qu es
ĠW ales
ĠJ ones
Ġconnect ing
T P
Ġdispl ays
ĠMat thew
Ġmir ror
8 4
Ġres idential
Ġweek ly
Ġcamp us
ĠC S
Ġinject ion
B A
Ġcor al
Ġhygien e
ĠA ud
ĠP rom
ct s
ĠG DP
Th rough
ĠU k
ĠPr im
Ġke ys
Ġadapt ation
Ġret urning
ĠIs a
Ġthe sis
b age
Ġprison ers
Ġent reprene
Ġgr an
ĠJer sey
ul ates
Ġpl acing
Ġavoid ing
Ġprom ising
Ġspeak ers
ĠY es
Ġass ault
ĠInd igenous
Ġmil it
Ġm isc
u v
or ious
ĠC all
ĠPr int
Ġsoph isticated
Ġapp s
A ss
M od
Ġf rog
Ġdist ribut
U C
Ġpat ent
ear ly
Ġcarbohyd rates
ĠSimilar ly
ĠH yd
Ġhum idity
B ack
b ro
b urn
ĠM onday
Ġdev oted
ist ically
T rans
Ġassess ed
ell er
Ġc ourage
ĠA h
Ġpurs ue
Ġp neum
Ġparticip ating
Ġ4 3
ĠNe uro
Ġinfluen za
itz er
Ġconf used
ian ces
Ġpred ators
Ġv ice
y ard
Ġfem in
Ġtox ins
the re
Ġpr iest
ĠQ ur
ĠApp lic
Ġp est
Ġdiarr hea
Ġb ite
ot ten
Ġinf in
Gen eral
Ġ19 00
ĠCl ub
ĠMc C
Ġhe al
ĠL uther
Ġel abor
Ġhistor ians
Ġeduc ated
Î ±
form ed
abil itation
ĠWith in
Ġacqu ire
Ġgent le
Ġmin i
t ype
Ġm ira
Ġfa ult
ios ity
Ch rist
ĠInt eg
ĠG M
ace utical
Ġindic ating
ĠCle an
ĠB on
Ġdesign ing
ĠF ig
Ġreview ed
ĠWork ing
Ġreg en
effect ive
Ġclust er
Ġmed itation
gen eration
Ġlast ing
Ġwas hing
ĠTra de
ig m
Ġgra ce
Ġarr ive
Ġpresc ription
v ol
Ġt ied
ĠVol ume
Ġax is
c ase
Ġbroad cast
ĠLe ague
ĠB ol
ĠN Y
et erm
Ġv ag
Ġavoid ed
ĠRes erve
Ġlo an
Ġcoun cil
Ġsh ade
Ġcirc ular
Ġantib odies
i y
on ly
Ġinvest ments
Ġdisp ers
8 00
b ul
, âĢĻ
Ġper mitted
Ġa ster
ĠF ull
ĠN ation
Ġed ges
Ġp ink
Ġcomm od
Ġref rig
ropri ate
u y
ph al
Ġassoci ations
ĠJeff erson
ĠH ig
ins ula
Ġindepend ently
ĠInt roduction
Ġbul lying
Ġcol ored
Ġess ence
ĠPol and
Ġdrop s
ĠH ung
á ĥ
ues day
ĠAr m
Ġess ays
Ġspeed s
Ġconcent rated
Ġun expected
ĠNether lands
r un
at ories
Ġm i
Ġinf lation
In stit
Ġarr anged
Ġimportant ly
Ġst ems
Ġret ail
ĠN a
ĠL ED
ĠJ ava
Ġart istic
Ġdisc om
ĠTe xt
vel ength
ist ent
Ġb its
Ġex ch
Ġsam pling
in ator
Ġpar ks
iot ic
quar ters
v y
Ġp or
ĠO N
Ġthor oughly
8 1
d is
Ġal k
Ġpath ways
ac her
Ġres olve
f ire
gg ed
i atric
Ġve ctor
urs day
ĠH em
pl an
âĢĿ )
Ġcomple tion
Ġm apping
u ine
Ġconstitution al
Ġth reshold
old s
Ġnerv es
ĠH o
Ġstrugg ling
P D
id ae
ĠT ar
Ġcar ries
Ġp ock
at ile
est one
ĠT enn
dom inal
ĠFranc is
Ġdistingu ished
Ã ¨
Ġh ill
Ġimp ressive
Ġexpress ions
Ġauthent ic
ĠW alk
friend ly
ĠF uture
roph ic
ĠR isk
Ġadminist ered
Ġsucceed ed
ĠH om
Ġhaz ards
Ġb ind
Ġdecre ases
Ġel ig
Ġexc ited
Ġprogress ive
Ġmob ility
j a
Ġear ned
Ġqual ified
st ic
Ġprot est
uss ion
d d
ag le
Ġaf raid
ĠScient ific
ĠTe aching
ĠM arc
ons in
Ġport ray
it le
Ġy es
ĠRed u
ĠNaz i
Ġh arsh
Ð ¸
ĠTh ink
H ave
Ġtradition ally
Ġmanufacture r
T ER
Ġtrem end
ĠH ot
ic an
Ġh ack
Ġsub mitted
ĠSh ort
Ġhard ly
isc onsin
Ġmonth ly
Ġn ort
Ġwor n
ree ment
Ġinter medi
Ġind oor
for ced
ĠB h
ucle ar
ar ians
ĠRes earchers
sequ ently
ĠW W
Ġteac hes
Ġsub str
ĠT raining
Ġbe aring
Ġan at
Ġrout es
Ġalg ae
C I
Ġext inction
Ġh ide
Ġg aps
Ġdial ogue
inc ome
Ġf irms
ĠF ollowing
Ġdist ract
Ġimmig ration
Ġinsp iration
n als
Ġ es
Ġreview s
Ġsynt hesis
Ġtherap ies
Ġupd ate
Ġaccompl ished
greg ation
Ġ8 00
Ġshall ow
ĠDi abetes
Ġunder go
Ġpublic ations
Ġfound er
Ġp ests
ĠS em
Ġ9 78
Ġdead ly
D ef
Ġsp ark
sec urity
Ġafford able
Ġs ail
Ġapp et
ay ing
ĠDem ocratic
Ġreject ed
ĠH an
ass es
Ġ4 1
Ġobvious ly
Ġexped ition
in ian
em et
ĠFr ont
Ġbrows er
Ġc erv
om atic
reat ment
ĠB io
ĠInt erest
fl ies
ĠDiff erent
th al
Ġpromot es
Ġb uck
ĠStep hen
ip h
Ġir regular
uls ion
Ġp anc
Ġb ills
at re
Ġsp ir
ĠF ac
Ġfeature d
Ġimpl ies
Ġcont rary
Ġconduct ing
ne g
ĠStud ent
Ġpersist ent
Ġem it
ĠEx amples
ĠBul gar
Ch ildren
ĠM uch
Ġtransform ed
Ġb ark
Ġre ar
az z
Ġembed ded
Ġshould er
ned y
Ġhe ter
Ġb er
h igh
o il
ub le
Ġpr one
ĠC ore
Ġr ats
ĠD id
Ġrecomm ends
comm un
Ī Ĵ
an as
Ġen lar
Ġnot able
ĠEx ec
Ġdemonstr ates
bur gh
Ġatt ain
Ġ Ù
Ġto ile
ver ages
ĠF a
ĠN G
Ġpar liament
F urther
inf lamm
ĠRe al
Ġgovern or
ĠQu estions
ĠJ im
Ġtravel ing
Ġdef ines
ĠJ on
Ġ198 4
Ġcol umns
te enth
Ġw ed
Ġf ate
D ep
ress ing
ro le
Ġcomp aring
Ġpres ervation
ĠDe ath
in ance
onym ous
ĠCarib bean
Ġg ear
hed ral
Ġsearch ing
az e
ĠArab ic
4 00
ĠH ur
s pring
ĠP ython
ak h
Ġmon ument
Ġtal ks
ĠScient ists
ch ron
Ġgener ating
Ġen abled
Ġfall en
a ver
ĠK ansas
Ġprog ression
ĠSh akespeare
Ġunt o
Ġcontinuous ly
ur ated
Ġall ergy
Ġgen us
Ġexpl ored
nes day
Ġreserv es
Ġk g
Ġrel atives
Ġdi ver
ĠH arr
Ġpub l
Ġindic ators
Ġ197 9
ĠIm port
F ind
Ġdiscom fort
Ġ rom
Ġch ron
Ġsitu ated
Ġflood ing
H igh
ou lt
Ġdoct rine
Ġre nd
ĠP ath
Ġdest ination
Ġintellig ent
ĠS n
Ġhistor ian
Ġillust rated
Ġhigh lights
Ġconf ront
Ġoverwhel ming
200 4
Ġcam eras
Ġas ks
Ġoccur rence
ĠT ree
Ġconfig uration
Ġdefe at
Ġm ercury
ĠBudd ha
Ġdist ances
f ront
ic ides
ĠJ un
ĠM es
Ġgen etics
Ġlar vae
Ġlab els
Ġbox es
Ġdefect s
ĠC N
Ġstead y
ĠH op
Ġencoura ges
Ġsust ained
Ġdisc l
Ġpus hed
Ġmet eor
ik ing
Ġimmun ity
Ġceleb ration
Ġutil ize
Ġsp elling
Ġname ly
ĠRom ans
erg arten
Ġh ills
Ġal ike
ĠN ep
Ġtra cks
ĠE nt
ag ger
W ater
Ġaccomp any
ĠAn imal
Ġcap ability
Ġcontrovers ial
ust er
Ġtour ism
Ġmeth ane
Ġcy cl
Ġpros pect
og ram
Ġaccord ance
swe red
Ġsp erm
s ized
Ġr ide
Ġl unch
Ġn ic
ĠLew is
ã ģ
Ġm art
Ġ198 5
C s
Ġt orn
ĠPhys ics
ce eds
ov ed
Ġmodel ing
anc he
H T
Ġp ap
Ġwrit ings
Ġmult ip
ĠCent ers
, '
L S
s chool
Ġorgan isation
ĠW ars
ph ones
Ġgun s
ĠPro per
ĠInd ex
Ġrob ots
Ġre plic
ĠH on
Ġfe ather
Ġobs er
erc ise
ĠDav is
Ġj ew
Ġl oyal
Ġthr ive
do ors
Ġmist ake
Ġeth ics
Ġorgan isations
Ġemp ower
Ġassum ptions
ron aut
emet ery
oc ent
Ġleg acy
rel s
D R
Ġle ak
Ġart if
d ated
Ġsub tle
d on
Ġdrain age
Ġs le
Ġcompl iance
ĠT ib
Ġh ang
Ġflu ids
n ings
Ġin adequ
Ġout line
ĠVictor ia
W ell
Ġde leg
Ġc ope
ĠInd ividual
Ġgather ing
ĠÂ ·
ĠEc onom
ĠD aily
Ġcardi ac
Ġbr id
ĠA z
Ġvom iting
Ġextraord inary
a ft
un s
Ġequ ations
ĠH ay
Ġinv ited
H is
an ium
Ġsur re
Ġinst ant
Ġimper ial
y an
Ġmyst ery
ĠS ource
Ġshould n
Ġo ught
Ġc ensus
g rim
Ġlif t
Ġhyper t
Ġtim ing
Ġemer ge
8 2
ĠM and
ĠMat hemat
ĠC ase
us hed
Ġmet er
Ġbe am
um bers
ĠNever theless
x ic
Ġsaf er
Ġvac uum
ĠW isconsin
Ġhun ger
ĠMove ment
U M
Ġat omic
ĠProt est
Ġcorrel ation
Ġdin ner
Ġj aw
Ġpr ies
Ġscen arios
Ġ4 7
ĠAl tern
Ġclass rooms
f are
Ġt ape
Ġthor ough
Ġm es
Ġrul ing
ĠC R
Ġaccept ance
i ors
ps on
ĠSy ria
Ġcalcul ations
Ġres erve
Ġinvestig ated
A nt
Ġv on
tern oon
he astern
Ġen act
Ġinteg ral
ĠN umber
Ġsens es
EC T
Ġpoor ly
on ing
vel t
ond ition
Ġemploy ers
ĠM oh
Ġ4 6
Ġcr ust
d imensional
st ration
Ġsevere ly
Ġmass es
enti eth
Ġover weight
Ġmark ers
as ures
Ġstake holders
Ġs el
au c
av irus
h uman
le ton
er ness
A F
ĠBe havior
ĠM P
Ġmet ap
ogn ition
Ġelectron ics
ar ium
ĠS ac
. ]
Ġexclus ively
ar ter
end ers
IS T
ol it
Ġpres chool
Ġorigin ated
b et
ĠBudd hist
ĠB alt
act ic
Ġw ax
! )
Ġint ensive
Ġse asons
Ġd ow
Ġcirc les
B D
Ġfil ters
Ġdom inated
Ġattract ed
Ġlib erty
Ġcas ual
Ġph on
or ney
are r
Ġcount ies
. -
Ġcateg or
ĠO il
up iter
ĠT ro
Ġpers pectives
Ġnecess ity
Ġext rem
ĠN E
Ġdang ers
l ings
ĠC it
ĠKen nedy
Ġm ud
ĠCh all
Ġcons ensus
B oth
ĠP R
Ġreserv oir
own ers
ĠMon th
Ġop ens
Ġwa velength
r ange
Ġloc ally
ĠG iven
Ġfert ility
Ġgold en
ĠAD HD
ik es
Ġrefer ring
Ġfol k
Ġincred ible
Ġcounter part
Ġg ains
Ġh orn
im als
Ġassum ption
Ġsusp ected
Ġ %
Ġres on
Ġcontribut es
Ġver se
ole cular
ivers ary
Ġrot ation
Ġuncertain ty
Ġl ying
Ġdet erior
20 17
Ġsw allow
Ġcritic ism
ĠE vent
Ġqu ote
Ġvol umes
Ġarrange ment
Ġsole ly
Ġrac ism
f ather
Ġwh ales
ĠInt ellig
Ġextra ction
ĠEth iop
il er
Ġpolit icians
Ġexec ution
ĠH as
Ġlo ans
ĠD uke
ose velt
Ġpat ri
Ġdiscover ies
Ġpu pp
g iving
Ġper ipher
Ġdeterm ination
Ġan swered
Ġdistinct ive
Ġvot ing
ry ing
h ard
Ġexec uted
atch ing
ĠN ame
Ġy ard
Ġmat rix
ĠUn it
Ġpro state
Ġepid emic
Ġhead aches
Sp ec
ĠS her
ĠH u
Ġthick ness
m ic
Ġin ver
ount ered
ge red
Ġen emies
atur day
Ġincl usion
ĠF low
ĠPsych ology
G u
Ġst rand
ĠC hemical
Ġcond em
Ġstorm s
n on
Ġstop s
Ġth inks
ĠR ay
al o
f irst
in ition
Ġfro zen
Ġadvert ising
ĠD un
Ġco inc
s ome
ot yp
ĠK im
Ġexp enses
ĠT alk
Ġspec imens
Ġrock et
ĠSam uel
Ġreal istic
go vern
Ġnewsp apers
ig ration
ĠGu id
ĠA IDS
Ġen compass
ĠHis pan
Ġillust rate
ly n
ĠAm endment
Ġstim ulate
Ġ à¤
ĠAn ne
Ġrest ored
Ġch a
st ud
ick ed
Ġprec ision
Ġir re
e ared
ĠScott ish
A g
Ġtrans actions
Ġmagn esium
Ġn urse
Ġbo ards
ĠC old
onom ous
Scient ists
form ance
ĠR ab
Ġen abling
ĠCh ap
is ible
Ġscen es
Ġprotocol s
ĠS leep
20 14
n ected
anc ial
ĠDar win
Ġh ip
Ġn as
ĠM uh
Ġlic ensed
ĠSym ptoms
e z
h ops
Ġf illing
Ġpay ments
ru p
Ġsk ull
P DF
at tle
Ġb in
Ġto ys
oth s
su pp
Ġinequ ality
ef its
re ll
Ġpres um
Ġv iable
ic ting
Ġpick ed
Ġge ographic
v als
Ġins u
Â ©
Ġbul k
Ġgen etically
Ġ18 00
Ã §
Ġcat al
Ġpack aging
Ġtele phone
are st
ra red
Ġalumin um
Ġde hyd
Ġenc ountered
Ġdegrad ation
h r
Ġincred ibly
Ġmom ents
Ġcook ed
Ġweap on
Ġrepeated ly
ine a
Ġimp ression
Ġdiscuss ing
e av
Ġterrit ories
Ġacknow ledge
Ġfurn iture
Ġem ission
Ġreprodu ction
Ġpath ogens
ĠStat istics
Ġqu ad
Ġprotect s
J an
Ġw ages
Ġn ick
Ġeconom ies
Ġtim ber
ĠG ir
h as
or ient
ĠR ose
ĠLe on
ĠMar x
Ġdiagn ose
och ond
Ġpreval ent
Ġsuppl ied
ĠAv ailable
feed ing
n i
se ud
Ġfrequ encies
Ġport ions
Ġign ored
ĠSwed en
Ġrecy cled
Ġfac ial
ĠTrans port
Ġexp end
Ġrub ber
g ood
Ġtub es
y o
Ġm ail
Ġg ums
on ent
ak i
ĠL iving
ĠPr ime
Ġign ore
Ġsh ipping
Ġm akers
Ġapplic able
Ġfif ty
Ġaqu atic
ĠT aylor
Ġdecl ined
art s
Ġsc al
Ġf oster
Ġrelie ve
Ġdism iss
ut y
Th ough
ĠTreat y
Ġsurve illance
ose x
Ġbl acks
Ġconsider ably
Ġdam aging
Ġg au
ess ional
Ġgen uine
ik i
Ġstress ed
ĠUnder standing
em ed
n atural
ĠIm per
Ġinflamm atory
m akers
iv als
ord an
Ġbr ill
Ġdesign ers
Ġpath way
ĠF lu
ĠY ears
Ġdoll ar
Ġterm in
Ġchap ters
G S
ĠM ental
Ġcoord ination
20 15
ĠG rant
Ġdepart ments
Ġb or
ow a
Ġph ases
Ġinflu ential
ĠG re
Ġantibiot ic
Ġ4 9
Ġdisapp ear
y t
ĠM os
ĠThe rapy
ĠOb ject
Ġmarg inal
ĠS ix
Ġphys iological
Ġinvest ors
con f
Ġcon g
Ġal ien
Ġad mitted
ĠB or
ĠB ow
ac ular
ĠG h
Ġinterpre ted
p ur
ĠW HO
Ġye ast
Ġsing ing
Ġm arch
Ġv ow
ĠR og
Ġcomp at
Ġeduc ate
Ġbeh alf
Ġworkshe ets
or ie
oc hemical
200 3
et ry
Ġwh ilst
Ġpip es
ĠP ap
Ġpow ered
Ġincor rect
ĠS ep
ĠF OR
ĠL u
ĠCar l
H z
Ġorgan ize
Ġcompass ion
Ġfles h
W orld
re strial
Ġch ains
ĠQ uality
Ġst iff
ĠÂ °
ĠRepublic an
Ġr ings
Ġar bit
ĠCon c
ĠIndones ia
Ġle ct
Ġover se
Ġpr ide
rict ion
Ġbow el
Ġpass ive
ĠLar ge
Ġt ired
Ġan ch
Ġdeterm ines
Ġtext ure
Pro f
op t
ĠBar b
ĠUr ban
ig ma
ĠBr idge
Ġl apt
Ġheart s
ĠU lt
Ġbiom ass
i ating
ĠS a
ĠD u
Ġfl ies
om on
ĠF ive
ĠDep ression
Ġrecept ors
Ġy ields
u ilt
Ġphr ases
ĠPhilipp ines
Ġan ten
Ġapp le
s l
Ġep it
Ġinstitution al
ĠSpec ies
p ost
ĠI ron
Ġtrans f
ĠP A
ĠN i
Ġconvers ations
Ġrevolution ary
Ġb eds
R L
Ġat om
ard ing
Ġcompens ation
Ġinher ited
E l
ĠC ra
ause a
Ġl ith
ĠZ h
Ġmult ipl
Ġcat ast
ob s
b ral
osp here
M D
Ġexpl aining
Ġaccess ed
Ġt ang
ĠD al
Ġmut ual
ĠL ower
Ġview ing
Ġca ffe
reat ing
ruct ive
Ġins pect
Ġfor b
ĠL t
Ġso ap
Ġalph abet
â Ħ
Ġbat tles
T ake
Ġflow ing
ĠJe an
st ead
ES T
Ġdim ension
Ġparticip ated
Ġgu ides
as se
Ġsee ks
Ġpot atoes
Ġdig it
Ġlim iting
B ased
ĠF ord
ap ore
ĠGra de
ĠLin ux
! "
ann a
Ġindic ator
ier ce
Ã³ n
Ġhazard ous
ul ous
Ġaf ternoon
r ass
Ġmount ed
il ly
im edia
Ġpro sec
Ġcomm ands
Ġk in
vious ly
Ġcost ly
ĠRo osevelt
Ġbelong ing
Ġ9 9
Ġdescript ions
Ġsim ulation
il ty
ĠEss ay
B el
Ġw ra
Ġdisp osal
Ġsk illed
Ġprec ious
Ġgast ro
Ġk ings
Ġfl ed
Ġ5 1
el and
Ġtransp arent
is hers
Ġrep ublic
Ġmagn et
Ġsy ll
Ġris es
M ake
Ġun ity
Ġground water
Ġpo ems
F L
Ġa ids
Ġfoot ball
k h
Ġ ic
Ġcr ash
Ġresc ue
or se
Ġanal og
Ġg land
In tern
eg u
Ġarchitect ural
act ivity
au g
ĠEn ter
ĠAr thur
Ġsk et
ĠEduc ational
k o
Ġwealth y
Ġphilosoph ical
iff erent
Ġch ip
Ġattempt ing
ĠMount ains
osa urs
let ter
ĠS earch
Ġmain stream
Ġmet res
ipl inary
ĠCreat ive
Ġunn ecessary
ĠB an
Ġappet ite
Ġb ands
ke ys
ĠF le
ru ce
wh ite
Ġindu ced
ĠFred er
Ġabs ent
Ġsatell ites
Ġpredom inant
Ġz inc
oles cent
Ch ar
Ġrelig ions
Ġpul led
Ġsl ide
Ġr ic
the ning
F A
iot ics
Ġout doors
Ġsh ield
Ġdis hes
Ġepid em
ĠDie go
ĠTib et
Ġconclud e
lar ation
an th
h our
ĠF ram
Ġme ets
N ext
ĠS ens
ab etic
Ġbu gs
Ġox ide
ir s
Ġv apor
Ġfle et
ĠR ub
Ġab road
Ġpal m
ĠJ ane
Ġconj unction
ĠC ape
ĠIn iti
Ġpath s
Ġgraph ic
a us
Ġquant itative
Ġp ec
ile y
os ity
Ġconserv ative
p m
Ġst uck
F S
arm a
ĠSt one
Ġtravel ed
Ġmut ation
Ġglob ally
Ġem peror
Ġcollabor ative
ĠProp het
ĠP ear
Ġdec omp
op athy
og l
Ġdigest ion
Ġepis ode
Ù Ĩ
Ġbe er
ĠT en
v asive
ol ly
ĠM ission
ag ine
sc reen
Ġcat aly
Ġod d
Ġsmall est
Ġg aining
w hen
ĠPer iod
Ġs au
ra c
Ġcross ing
o en
Ġbott les
og ene
Ġpla que
Ġens ures
G od
Ġmanufact ured
Ġs orts
ĠK ong
Ġdis par
ĠN S
Ġceremon y
ĠSp e
Ġgalax y
Ġdefe ated
Ġhe pat
Ġcur ious
ĠSo ft
Ġthr one
Ġtun nel
Ġsubstit ute
f ol
Ġcomb ust
Ġarchae ological
Ġsh adow
â Ĥ¬
Ġexam ining
Ġpharm ac
ĠE le
Ġgra ve
Ġcolle ges
Ġ198 3
Ġcheck ed
Ġins ulation
Ġ197 5
Ġab dominal
ĠDou gl
e ous
l ink
Ġvolunte er
A ug
Ġfar mer
Ġfest ival
ĠTurk ish
ĠG reg
Ġexp ense
ĠKen ya
Ġneighb ors
ra ge
tt es
Ġnurs es
Ġm im
Ġde als
Ġdis put
ograp her
ĠV ers
Ġposs ession
inflamm atory
Ġdec ent
Ġcompar able
Ġsurviv ors
ĠDef ense
Ġdevast ating
Ġ icon
ĠO m
au nd
O b
ĠM aking
Ġrec overed
Ġsec re
Ġcheck ing
Ġfulf ill
ĠâĢ Ŀ
Ġpur su
Ġvo ices
best os
ch ild
Ġad ul
ew ater
ont o
app y
Ġv ocal
ĠAfghan istan
ĠJ upiter
ĠY ellow
Ġser vers
Ġmov ies
Ġpollut ants
c m
Ġ5 2
Ġign or
il ateral
Ġninet eenth
O ct
Ġprolong ed
Ġbel t
V D
ĠB ody
Ġshort ly
AR T
role um
Ġstrength s
Ġeffic acy
Ġfe as
app ropriate
Ġingred ient
Ġal b
um ing
ĠKnow ledge
g on
Ġart ic
erv es
ĠW rite
Ġob ese
Ġdis asters
w ill
Ġ @
less ly
Ġshop ping
Ġche aper
do i
Ġarrest ed
Ġpoly mer
Ġassign ments
ĠAr k
Ġcon ce
ĠH ong
Ġ5 6
Ġpat ch
Ġperson ally
ĠIndust rial
C M
Ġl ig
Ġemp ir
Ġres idence
Th ose
ed uc
Ġfollow ers
Ġang ry
ĠL ind
Ġgre y
ĠE N
ĠO pp
Ġ198 2
Ġnucle us
Ġhead ache
Ġver bal
Ġh ind
ast ing
isp here
Instit utions
Ġob sc
Ġext ends
Ġwar mer
Ġst ack
Ġcomp act
Ġy oga
A v
Ġfe e
el d
Ġcare g
Ġres ur
els on
Ġprogram mes
Ġpractition ers
Ġrespect ive
Ġcommand er
ĠMill er
osy nt
Ġtremend ous
ĠF all
oth y
Ġ Ï
ĠR aj
g ram
Ġvolcan ic
ĠO pt
Ġautom atic
ĠC ensus
Ġfra ud
he ld
Ġsp ell
Ġmethod ology
ĠCont act
O rig
ĠBel g
ol as
Ġhistor ically
Ġco ins
ĠCon stant
ĠM u
Ġdiscuss es
ĠExec utive
int on
Ġgif ts
t wo
ro ach
Ġab d
Ġher bs
Ġent ers
20 16
ĠP arents
ĠD ub
Ġden ied
Ġclust ers
Ġgu ided
Ġdocument ation
Ġbas ics
Ġinterview s
m ir
Ġdream s
ĠS ex
u ct
it ored
ĠE dition
ĠN ap
ĠCh am
last name
ĠC ut
Ġgovern ance
Ġbelong s
ĠB ad
ib ration
Ġreg ulated
Ġmur d
ĠCapt ain
Ġtalk ed
Ġrespond ed
Ġto mb
ĠC e
ĠRep resent
ĠFrank lin
ĠBuddh ism
ĠAcc ount
Ñ Ĥ
ic ut
Ġn ode
Ġpract iced
in ence
ĠK at
Ġp itch
ĠL ove
aw ay
Ġgr ants
200 1
Ġconsist ed
ĠArch itect
Ġs ore
p o
oca ust
ES S
Ġste ep
âĦ ¢
In c
Ġb rick
Ġover t
Ġang les
Ġd ign
es see
war f
E V
ĠS ite
Ġprop os
ĠP rize
ĠB apt
ac cess
Ġimp osed
ĠP oll
Ġar tery
Ġinit iated
f u
in ced
Ġin k
Ġin quiry
Ġmotiv ated
Hist ory
ĠG er
ĠPers ian
we et
m outh
Ġprof its
ĠTeac her
Ġantioxid ants
Ġ ions
Ġact ors
ethe less
P res
ĠEn c
Ġprop he
ĠCar bon
Ġfail s
Ġunem ployment
Cop yright
Ġneed le
as is
ĠCl ark
ĠCult ural
ĠA ges
Ġind ication
Ġspecial ists
Ġcampaign s
ĠCre ate
Ġelect rom
Ġequ ity
sp e
ab s
ĠAr ist
Ġcann ab
te in
Ġmen u
ĠCommun ication
Ġmicrob es
he res
Ġsn ake
Ġtelesc ope
Ġad mit
ass ment
il ton
ĠB ah
Ġterm inal
Ġar teries
ath ic
Ġ7 2
Ġsched uled
ant ine
Ġpass engers
ris k
ĠH unt
Ġpromot ed
ou b
Ñ Ģ
Ġd irt
Ġconstit u
w all
ĠV ill
Ġcomb inations
Ġhost s
Ġb ases
ĠP ow
Ġmach inery
Ġre n
Ġpus hing
ar se
Ġcon vention
Ġpoll en
6 00
ĠArch ives
Ġpoison ing
C urrent
Ġc her
Ġb ike
op ter
Ġend eav
Ġom ega
Ġint ens
E urope
M on
ro ck
ĠL ic
ĠComm and
or b
ar b
Ġd ictionary
ab ama
Ġ5 4
Ġpress ures
ĠPhil ip
oult ry
Ġse arc
Ġinf l
io let
on duct
ĠW in
Ġ5 3
ra de
ĠS M
am ily
ĠO d
ac re
Ġfor ty
Ġdatab ases
Ġgalax ies
f ive
ĠM ong
Ġann ounce
ĠCorpor ation
s un
in stein
Ġint u
ĠSer ies
D id
ok es
Ġ5 7
Ġimm ense
ĠConfed erate
ĠMuh ammad
Ġper sec
Ġconstra ints
Ġun com
Ġqu e
ĠKent ucky
P at
ĠT ax
im eter
ation ally
ĠE val
ĠE s
Ġcar cin
Ġkid neys
ĠHT ML
ĠT uesday
Ġbl ame
200 2
Ġacqu isition
D isc
ot hel
ĠDec laration
ĠR and
Ġim bal
is er
Ġth rown
ER S
is a
ur red
Sec ond
Ġag enda
Ġann iversary
Ġdat as
Ġut er
Ġcorpor ations
Ġmean ings
ĠH ad
Ġneigh bour
Ġb es
ĠF A
Ġacc used
ĠP ay
Ġinc idents
Ġanaly zing
Ġcol ours
Ġmembers hip
Ġlaw n
Ġseem ingly
Ġspeak s
Ġman kind
ĠProt ocol
Ġmag ic
Ġenterpr ise
Ġ198 1
he el
Ġpref erence
p y
Th us
uls es
iz ational
ote chnology
sh ore
Ġdark ness
il ib
ul ative
Ġent ity
Ġaff il
ĠElect ric
ĠTh ursday
Ġintrodu cing
Ġsubstant ially
Ġh ate
Ġrepl acing
Ġcaffe ine
Ġdef ining
Ġoper ators
Ġdraw ings
ĠP resent
Ġcy t
Ġbo ats
it ance
ĠT y
ĠT ok
Ġcar p
ĠAr gent
organ isms
Ġst atic
Ġsacr ific
Ġast ronaut
ut ri
Ġhe ated
Ġrad ar
Ġsec ular
ĠTe am
ĠMem orial
ropol itan
Ġc od
ĠR us
ĠMon itor
th s
ĠB ob
Ġde ple
indu ced
ĠG ames
Ġd ual
ĠD ur
Ġconv inced
Ġalle ged
Ġr ou
g rad
Ġbe ef
Ġloc ate
Ġpublic ly
Ġconsider ations
ĠGold en
Ġsurv iving
Ġch im
m ill
v ance
Ġbet a
ven ue
Ġhead ed
ĠFre edom
Ġregist ration
kl ah
Ġneurolog ical
l av
Ġg ang
Ġmon itored
Ġge ographical
v ity
est inal
ib li
Ġstruct ured
Ġ196 9
Ġtit les
b acks
Ġexpl os
for ward
Ġrail road
Ġb old
ke ley
Ġcor ruption
Ġbreak fast
OR D
Ġfoot print
Ġwin ning
Ġcast le
Ġte ch
Ġprom ised
Ġproject ed
Ġch amp
Ġ197 3
ĠN at
ex ts
Ġland f
Ġbuild s
Ġsat urated
Ġlegisl ative
ĠPol ish
Ġfe at
ĠAff airs
E m
Ġadv ised
Ġsug ars
M us
s ens
port s
Ġconcept ual
Ġpl ug
Ġun healthy
ĠIndian a
Ġt ender
ĠG P
form ing
Ġcare ers
Ġrail way
ol is
ĠM it
pl us
Ġdo zen
Ġrel ates
Ġsoc ially
Ġmosquit o
Ġveter in
i ens
u ana
Ġtem pt
Ġprecip itation
f at
Ġg ross
ri ends
Ġra ises
Ġasp ir
inc ial
h ave
j amin
Ġdemon stration
Ù Ĳ
Ġcons p
ĠSing apore
Ġfound ations
ĠT ri
Ġev ac
ious ly
Ġent ities
Ġmar gin
Ġcomb ining
Ġpan ic
Ġb ore
ĠSe lect
ĠHealth y
Ġlabel ed
Im age
W S
Ġint act
ĠPat ients
Ġb om
ĠR out
Ġco in
Ġconstit ute
ĠMar g
l ades
Ġp ix
Ġless er
sy stem
Ġ197 2
Ġ194 4
Ġnorm s
ĠG ro
ĠMark et
Ġinter vals
Ġdist ress
Ġcust oms
d am
Ġb ars
ĠN ort
Ġsold ier
gra duate
Ġsatisfact ion
mon ary
ĠObs erv
r int
ĠL G
ody nam
Ġemer gence
Su pp
ĠP as
Ġbas in
Ġ196 8
ras ound
Ġcert ified
ĠM aterials
Ġext ending
Ġclos est
ĠCom b
ĠI b
am ents
Ġdiv isions
Ġdepend ence
Ġcontract s
Ġmel an
c r
Ġsp here
Ġfound ing
ĠEv olution
Ġstay ing
Ġl y
ĠB ird
ĠN ich
c at
m atic
ĠUt ah
Î ½
Ġoff spring
Ġsl ope
Ġlack ing
let al
sw er
Ġrecept or
Ġsymb olic
Ġdirect ory
Ġpurch asing
Ġaccum ulation
P ublic
oc occ
ĠU C
ĠZ e
Ġinteg rate
ur ally
ĠO R
Ġrel iability
Ġinter rupt
Ġchalleng ed
ou ch
ĠT ai
ĠR od
Ġfear s
Ġmiss ed
Ġrefrig er
un cture
ĠTenn essee
Ġupd ates
ĠF em
Ġphot ography
co in
ig s
ĠH ell
Ġbut t
Ġinadequ ate
oven ant
ĠV o
Ġm ul
ĠAdv anced
vel ation
ang ular
Ġpharm aceutical
ang ers
Ġtri ps
Ġb ay
Bl ack
U D
Ġcount s
ug ar
Ġvari ability
Ġ194 1
Ġtrig gers
klah oma
P P
n ames
Ġup set
t est
lic t
ĠPl ants
D is
ist ence
Ġwet lands
Ġfung i
Ġlegit imate
Ġcomm emor
ĠK ash
Ġret ire
ĠHawai i
ĠF isher
Ġed ited
Ġpur ple
Ġteach ings
Ä «
ĠRe qu
Ġchem otherapy
Ġbrill iant
Ġread s
Ġassess ing
igh ters
ult ural
Ġsym met
Ġ197 8
Ġstim ulation
Ġwas t
Ġdis in
Ġcirc uits
Ġdecl ar
Ġgraph ics
ĠPolit ical
Ġtra ged
ues e
lu x
ĠNob el
Ġg lands
Ġc er
Ġpro claim
ag us
Ġcrow d
Ġexclus ive
k ay
Ġle an
Ġflu ctu
ĠCast le
Ġwere n
ĠWed nesday
D ec
D ata
augh ters
Ġblock chain
Ġelig ible
C ent
Ġ197 6
Ġt ale
Ġtra ins
Ġextract ed
ĠFore ign
Ġter rible
ĠRes ource
Ġenthus i
Ġelimin ated
Ġhighlight ed
Ġwor ried
Ġaff irm
J une
Ġca ution
Ġbas ket
Ġsp ite
ĠGree ks
Ġprem ature
Ġundert aken
ig ion
Ġcont exts
Ġsub ur
ĠAust ria
u ate
ĠCol lection
Ġcount ing
ĠSc he
ĠS ri
forest ation
Ġgeomet ry
rou ps
Ġ197 1
ĠSh ow
I O
ĠC ertain
Ġbreat he
ĠTer rit
ĠB all
ien cies
In ter
ĠTr ump
Ġch ips
Ġenvironment ally
Ġreb ell
ress es
Ġvirt ue
Ġcor ros
Ġharm ony
ik h
Ġcomple ting
Ġlo ads
Ġinvestig ations
ĠLiter ature
Ġt ies
ov a
Ġwh ites
Ġconcent rate
ĠBas ic
at ab
Ġnav igation
Ġb icy
ol ia
Ġimport ed
Ġcontrovers y
Ġdys function
ad ian
ĠLaw rence
Ġpeace ful
Ġas set
Ġflo ating
Ġvot ers
Ġinterf ere
Ġd rew
ĠV eter
ĠIsrael i
Ġpromot ion
Ð ½
Ġcompet e
ĠImper ial
Ġobserv ing
Ġvot es
Ġforg otten
ic iency
Ġimag ery
Ġalt ogether
p erson
Ġl enses
ĠUs ually
Ġautom ated
Ġcar ing
Ġcomprehens ion
Ġtw entieth
Ġpract icing
Ġelev ation
Ġcross ed
ĠPart icip
Ġfresh water
ias is
Ġcont ra
Ġrequ ests
P ar
ĠEffect s
g ic
ĠB esides
ĠInd ependence
Ġsure ly
iet al
Ġsw ord
Ġres ident
ĠAb original
Ġdiscipl ines
Ġimpr ison
ĠM agn
ĠCh ile
ĠAl abama
Ġdescend ants
D i
od ge
on ge
Ġworks hops
p ers
Ġm ines
ĠL ie
we ed
y ers
Ġrele ases
m i
ĠS aturday
Ġillust rations
ĠC redit
Ġagree ments
Å į
ol utions
Sc ience
Ġoper ator
Ġwound ed
w ind
ĠD or
Ġjour nals
Ġc oding
In f
sc ill
Ġslow er
Ġcav ity
Ġpl astics
iff s
imm une
es y
ĠSt aff
ĠK ings
Ġradio active
Ġuncle ar
ĠP H
f our
Ġm a
ĠP a
h is
im ony
Ġgl ory
Ġdecre asing
am ous
Ġge ography
z ens
ĠSy ndrome
Ġbit ter
Ġwaters hed
Ġbrief ly
t r
Ñ ģ
cell ular
Ġcalc ulation
C or
Ġsu ited
ĠJ ordan
Ġlater al
we alth
Ġmod ify
ad ays
ĠF acts
Ġpredict ions
em pl
Ġinform al
Eng lish
G A
Ġinput s
Ġhypert ension
Ġt ear
Ġfrag ments
ĠN ig
Ġfund ament
Ġcert ification
S ometimes
Ġn ausea
ĠG il
ĠMil itary
Ġvolunt ary
Ġwithdraw al
c ription
b one
Ġrel ies
F C
Ġc in
Ġtr ies
h ot
Ġpig s
v as
om ething
Ġobst acles
eng u
âĢ¦ .
Ġload ed
m ind
im ity
Ġprov inces
Ġlun ar
he at
ĠS ustainable
os ures
Ġartif acts
ĠP il
ĠL ady
Ġtrib al
Ġconsult ation
T O
Ġf art
ced ented
Ġde emed
ĠIniti ative
E X
ĠLouis iana
Ġd ated
Ġmen stru
Ġdep icted
Ġpo le
Ġed iting
he nd
vers ion
Ġ6 6
Ġind ivid
ĠVis ual
Ġad min
Ġstandard ized
Ġmel ting
Ġbank ing
f il
pl ane
Ġpresent ing
Ġimpact ed
Ġlandsc apes
Ġtru ck
Ġexam s
ĠB oy
Ġexpl osion
F eb
ĠCount ry
Ġl uck
ĠC ru
Ġsystem ic
ffic iency
Ġnegative ly
ĠA qu
ĠB rad
Ġconf ined
Ġexplan ations
Ġintest inal
Ġtra p
Ġcurrent s
b en
Ġpries ts
Ġrein force
Ġtack le
Ġactiv ists
ann el
M arch
aren cy
ĠP it
Ġban ned
Ġsynt hes
Ġcertific ate
Ġm aternal
ow ed
Ġin ability
Ġcru el
Ġjurisd iction
W ork
Ear ly
Ġal leg
ors hip
Ġfirst name
Ġinter val
Ġadvoc ates
Am ong
Ġg er
Ġwell s
ash ing
T C
ad ic
Ġnob le
Ġth umb
Ġadvoc ate
O V
Ġoff set
Ġ196 7
Ġatt ending
ilib rium
Ġ7 00
reg n
Wh ich
Ġtherap ist
ĠRel ations
Ġse gments
Ġinsu fficient
( )
r ish
um a
ĠH ind
Ġdes irable
ĠMal ays
Ġresil ience
Ġec ology
ĠC hen
Ġpron ounced
Ġfung us
Ġbreak down
Ġdisp ute
Ġgr at
ĠIm m
Ġexplicit ly
ar p
Ġsens ation
Ġstay ed
ĠIntellig ence
ĠC ook
Ġreh abilitation
Ġl ighter
Ġnot ably
Ġra ces
Ġworld s
Ġmark er
b led
ĠS i
ĠP y
Ġ19 18
ĠNew ton
Ġwar rant
ĠEar l
Ġle ts
ĠAr men
Ġentertain ment
Ġbrid ges
j an
ĠGen esis
Ġstat ue
ĠBro ok
Ġantioxid ant
ed ed
Ġex ert
Ġcomp ression
b ird
ed ge
Ġimp aired
M at
S ur
ĠR a
Ġsh o
Ġrul er
ĠTor ah
ol ith
Ġgu ilty
or ical
Ġill um
Ġret ained
ĠAuthor ity
b in
Ġl act
ĠC ass
as a
Ġremem bered
al ine
Ġmed ian
ĠUS DA
Ġsimilar ly
ena issance
Ġext inct
ĠMar ia
Ġs or
Ġw ool
Ġ194 2
ĠAl bert
B L
ĠBe ach
ast ed
iz oph
Ġread ings
Ġfunction ality
ĠConnect icut
ĠStan ford
ar ity
Ġevalu ating
Ġintermedi ate
Ġp ound
ol lo
Ġcompr ised
ĠS C
Ġat e
ĠPub lishing
Ġles ions
ĠP V
ect or
ff icking
Ġperm its
ĠB ot
Ġpra ise
S ign
Ġcon sec
Ġextens ively
Ġrow s
pt on
ar on
com a
Ġunp re
v o
Ph oto
Ġp iano
Ġinterf erence
P M
Ġ197 4
Ġsepar ately
T HE
Ġg el
ĠH al
Ġcerv ical
Ġr ating
m us
Ġmod est
k m
Ġd well
ĠP ra
Ġcl osing
Ġsn akes
S everal
Ġc ups
Ġbow l
al in
ĠP ast
Ġcreat ure
ar ms
em an
Ġmod ules
Ġsc reens
Lear ning
Ġreal m
ĠÂ »
izoph ren
A V
ĠO klahoma
plic it
Ġinsp ire
Ġimpair ment
et on
ĠR ap
Ġpoint ing
Ġoper ates
Ġtravel s
ur u
th ird
Ġsp ont
Ġto dd
ĠE M
int estinal
Ġcontin ually
ĠDe ep
Ġscat tered
Ġto ll
ĠG ame
Ġse ats
Ġunc ons
ĠHistor ic
Ġshell s
Ġ194 8
ĠA ra
Ġdest ructive
Ġpref erences
o ard
D es
Ġdis se
ĠSc i
Ġdiv or
c ount
Ġfe es
Ġ197 7
K ey
Ġb inary
ra ined
ĠCop yright
Ġde ce
unc iation
K now
Ġb apt
Ġfre ed
ĠJ oh
Ġstri kes
ĠU pper
ress ions
Ġpresident ial
Ġ1 10
b its
op ing
Ġmyth s
Ġcryst al
ogen esis
Ġoccas ions
t ically
ĠOr thodox
Ġkn ock
Ġol ive
uc ks
Ġfram es
Ġstri p
ĠArch ae
ĠBang lades
Ġshif ts
Ġtu ber
Ġ q
ĠBy z
ĠCons erv
Ġout standing
Ġdiss olved
en ergy
Ġc el
ĠV ery
eth yl
Ġtoxic ity
G reen
it ives
T ube
p in
Ġm elt
ĠR ain
F ood
Ġplace ment
lement ary
amm a
Ġelimin ating
Ġbill ions
Ġstrict ly
ĠMathemat ics
ĠT al
ĠC ert
Ġind o
Ġneg lect
ĠPalest ine
Ġch at
all ing
Ġund ers
Ġreform s
ur ring
ĠG PS
Ġdel ight
Ġb ats
ĠB road
Ġm ast
Ġlik es
Ġalt itude
o z
Î ¿
eren n
m other
as ia
Ġco ating
H er
Ġw ires
Ġref ined
Ġpat ches
ix ed
Ġsimilar ities
Ġbur ial
mar ks
u ly
Ġ1 30
Ġtransport ed
ĠSum mer
F l
Ġ196 5
S ch
od s
Ġdam ages
ĠHol ocaust
Ġl ining
Ġpositive ly
omet ric
Ġmix ing
Ġl ux
Ġactiv ated
Ġunpre cedented
d em
ru bs
Ġinf o
ĠYou th
Ġ5 8
ĠAl ways
ocy tes
id el
Ġ193 9
O UR
ill ery
Ġaut umn
ĠS D
Ġsome how
Ġsurround ings
Ġsil ent
Ġlong est
Ġcoll aps
Ġthreat ening
Ġnav al
Ġt et
ot ional
ĠTe le
Ġpul se
Ġdial ect
Ġwat ched
am bo
op or
Ġmechan ics
Ġexplo itation
Ġchar ging
Ġident ifies
e u
p res
Ġs ink
ĠB it
H el
Ġunder m
Ġgener ates
az a
Ġtrig gered
ot ive
Ġrec ru
Ġleg ally
G ood
Ġsaf egu
t ics
Ġbas eline
Ġm ant
ĠS E
lud e
Ġpar ish
pro cess
ĠSat urn
Ġmicrob ial
Ġwhe els
ĠIm age
ĠVir t
ather ine
ĠDep ending
u i
ĠG as
hem atic
Ġattach ment
Ġqu ot
Ġis ot
Ġdes per
ro sc
ĠG ive
ĠTor onto
itzer land
Ġmit ochond
p ath
Ġth ou
ier ra
Ġimpl ant
ĠC M
Ġaccommod ate
ul ent
th reat
est eem
Ġblock ed
Ġw ounds
ir k
ĠP ediatric
ĠPlan ning
Ġhepat itis
ĠStr ateg
Ġpro be
Ġdelay ed
Ġbeh ave
Ġincl usive
Ġapprec iation
ĠP ict
ĠG ospel
Ġtit led
u z
Ġcar rier
ĠRad io
Ġgro cer
ĠM aine
ĠB BC
Ġinstruct or
nov ation
ĠPark inson
Ġintest ine
ĠCap ital
arm ing
ĠNor way
Ġc ro
ing ing
im ination
ĠS el
ĠC ro
un es
Ġsc rew
ĠSwed ish
B en
in us
Ġ20 30
pro of
rox imately
Ġb ip
Ġj et
Ġpast e
Ġcultiv ation
Ġf ired
Ġtrans it
Che ck
Ġwork force
Ġf its
V is
Ġc ous
Ġinsp ection
ro b
Ġv oy
Ġr ival
Ġmod es
Ġmill enn
ĠPortug uese
St art
Ġachieve ments
Ġnegot iations
Ġeconom ically
F P
Ġo zone
ĠC amb
ĠI C
Ġexpl ores
b ial
l ied
ĠB ox
ĠB rig
uss ian
fort able
ĠW as
enn is
ĠCom mer
ĠDem ocr
L C
Ġjud ges
S E
ĠB egin
ob acter
Ġlast ed
Ġjo ining
Ġpure ly
Ġinsert ed
ĠR oss
Ġcomp iled
isc al
b ound
Ġche cks
ĠAnt on
Ġpass ages
N et
Ġdisc iples
s im
Ġp oultry
ores cent
D T
ĠP erson
Ġint rig
ĠAl f
Comm on
ĠAn aly
Ġunc omm
ĠReg ional
Ġacknowled ged
Ġhung ry
Ġcons olid
Ġatt ribute
Ġc ows
ag u
Ġval ued
ĠPhilos ophy
od d
Ġscar ce
ĠPrim ary
ad i
Ġnew born
Ġsil icon
ĠBen jamin
n est
Ġo ak
ĠR enaissance
Ġactiv ation
Ġrecogn ised
Ġse as
Ġgall ons
F T
ig o
ĠD ick
Ġgener ator
Ġdeploy ed
n ut
Ġ196 4
ze ch
Ġpack ed
Ad d
A ct
h al
w ich
Ġst ir
Ġper ceive
ĠBer keley
ĠCol lect
F ollowing
Ġrev ised
Ġwalk ed
an ia
ag ram
ĠAd ams
Ġsubject ed
Ġcou pled
Ġcra fts
Ġindivid ually
Ġqu een
D own
Ġv ic
Ġe ternal
est ab
Ġsm ok
ĠP ersonal
Ġroll ing
ĠS ound
Ġor th
Ġharvest ing
st able
ert o
Ġtrans cript
Ch apter
Ġnav igate
am el
ry ption
Ġs ake
Ġr anks
ĠR E
ĠTh ings
Ġwar fare
en c
Ġd ump
ĠUn iverse
Ġinv isible
Ġsc rap
Ġoutbre aks
Ġstret ching
ĠDise ases
Ġcl ot
Ġkey board
ĠS outheast
ĠImp act
i w
Ġmaint ains
ĠF at
ð Ł
ĠT ogether
Ġbr ut
Ġdiam ond
s ight
Ġb on
ĠB uild
Ġgas oline
Ġtra pped
ret ion
P C
Ġinv al
Ġappl iances
is l
ĠS ant
ers hip
Ġglass es
Ġdisapp eared
S ym
ĠB ishop
Ġcons iders
pro t
Ġprosper ity
d ec
ĠI owa
od us
Ġwe eds
oc ene
Ġpass enger
B et
r ative
ĠC hemistry
Ġfail ing
ĠSim on
Ġg ay
ĠE at
Ġcitizens hip
Se pt
ĠH ans
Ġfather s
Ġsan ct
w riting
Ġwar ned
Ġcompet ing
Ġrecip e
Ġparas ites
id th
ĠW y
Ġun su
ĠSm art
ion ed
ĠE aster
Ġconcept ion
Ġselect ing
ĠAnt i
ros is
Ġf ans
ul atory
Ġd amp
ĠW inter
Ġse af
Ġen erg
ĠSt ress
ĠVen us
ĠRes ults
Ġsufficient ly
Ġoutl ined
f ood
ins ic
Ġmicro bi
ĠCub a
Ġf ool
Ġsurge on
Ġinvestig ating
Ġtomat oes
Ġwast ewater
Ġmon aster
Ġformer ly
ĠPop ulation
Un fortunately
Ġdies el
b uilding
Ġmod ifications
Ġdraw s
ĠSk ills
F e
it ational
ĠH ou
Ġat he
Ġen roll
re a
art icles
= =
ĠA B
ĠD ak
Ġgra b
ĠAgricult ural
Ġwh ale
Ġwor ms
ĠV I
Ġhop ed
Ġabd omen
m ates
Ġg ently
g roup
Ġs ends
ir ie
Ġr ip
Ġsign aling
Ġinev itable
Ġcultiv ated
Ġmunicip al
ig nt
sec ond
M M
Ġchart s
Ġr iding
Ġpre jud
Ġpl ural
Ġmob il
re as
ĠWh it
Ġlay out
Ġarrange ments
av y
ĠV ideo
Ġuncons cious
Ġcombust ion
res istant
Ġr um
ag a
are ttes
Ġtour ists
Ġearthqu akes
Ġp our
ĠA str
Ġas bestos
Ġtraum atic
Ġtut orial
ĠOlymp ic
ĠB ud
est het
ĠSt ock
te ch
Ġreg ards
ĠGen erally
Ġelectro ly
Ġtoile t
orient ed
Ġmicrosc ope
Ġve ins
ĠNe v
Ġsettle ments
p ose
Ġc ock
y st
ch i
AN D
Ġflood s
P E
ar an
ĠL uke
sel s
Ġur inary
Ġsubstr ate
s ite
ing ham
ĠT our
ul iar
ĠM as
Ġspir its
l ies
M c
Y et
Ġaut onomous
it ar
Ġret rie
ĠSy d
up uncture
ĠPM ID
Ġinstruction al
st an
ĠD og
Ġo ct
Ġev olve
Ġproblem atic
ĠMay be
ij uana
ys ics
ogl ob
f ram
ĠM IT
em at
Ġ19 17
M r
on ics
ĠG i
Ġf usion
Ġd edu
ĠFin ancial
R et
u ated
ot ted
ĠR ac
Ġdo zens
Ġfoss ils
Ġs emic
ur ities
d ig
Ġco h
i pt
over ty
Ġtempor al
ĠProtest ant
Ġsol ved
Ġcrit ics
Ġr ated
Ġ6 3
ĠPer u
ĠA y
Ġcomprom ise
Ġ ||
Ġb esides
Ġcon form
Ġsix th
ĠMc G
Ġemphas ize
red ict
Ġqu oted
ĠAll en
izophren ia
l og
em en
Ġr het
Ġperipher al
Ġprom ises
Ġcryst als
le ans
Ġal gebra
Ġ6 2
Ġy og
ĠL es
Ġpe as
Ġsequ encing
Ġlingu istic
t w
ĠH un
Ġres olved
Ġpost ure
Ġplan es
D C
st orm
Ġhigh way
h ome
ĠIm mun
im b
th an
ĠK al
ĠSw itzerland
ĠDis order
Ġprot otype
Ġcoord inate
dr iven
Ġpy ram
ĠC ab
Ġsec ured
Ġ9 7
Ġce ment
ĠDel hi
Ġincent ives
Ġen rich
Ġj ack
on ut
oc ate
un ct
ĠL ink
ell ar
ĠMe anwhile
199 9
Ġhoriz on
ant e
R ed
Ø ±
Ġa rom
Ġcent res
ĠM un
th a
ĠL oss
Ġsil k
Ġinnov ations
roph y
osc ow
ĠEurope ans
Ġritual s
v ised
Ġinter con
ad ows
Ġsu cc
b es
se ts
S ocial
p ub
ĠT B
Ġtr illion
ĠAll iance
F ree
Ġl iber
Ġra m
Ġcount less
li hood
Ġw re
im ated
ail and
Ġrest ing
Ġel ite
ĠF ollow
Ġunt reated
Ġwitness ed
ĠA ward
Ġ6 7
Ġvulner ability
int erest
Ġ5 9
TS D
Ġb od
ĠK it
ĠP rior
Ġ19 14
re ach
iv ic
ĠI L
Ġsil ence
ĠCommun ist
Ġillust rates
P oint
Ġdr um
Ġp orts
ond er
iol ence
A pril
re hend
ar bon
Ġpneum onia
ĠCon n
Ġass ass
Ġexam ines
ĠOr d
Ġvent ilation
Ġsod a
S M
Ġb iblical
ut ers
Ġbre eds
Ġdispl ace
opor osis
pp ers
Ġgr asp
Ġstop ping
Ġar sen
Ġhand ful
Ġt ent
Ġder iv
Ġmosquit oes
Ġsulf ur
Ġseiz ures
Ġcrit ically
ĠCo al
Ġ196 3
ĠCom par
Ġdry ing
Ġpro c
ill es
Ġcounsel ing
ax is
we ek
D oes
Ġinc ons
Ġben ch
ĠBanglades h
Ġuncomm on
Ġdr illing
Ġden y
Ġremed y
ĠMarsh all
ĠEthiop ia
ot le
ĠL akes
Ġhas n
Th ree
Ġod ds
Ġoblig ations
Ġclin ic
M in
P T
Ġs its
Ġrestaur ants
ĠM RI
Ġtra ces
ne e
Ġconnect s
N on
r ator
Ġremed ies
L ife
ac ity
ĠReg ion
Ġun ited
hes ia
ĠAl ong
un ctions
Ġpub lish
Ġinfin ite
Ġelabor ate
d irect
ĠMag azine
Ġut ter
ĠMe chan
ignt y
th y
it ime
an ic
if iers
ric ular
ĠDen mark
p ack
od ia
p it
ĠS ong
er k
ceed ings
Ġobt aining
Ġdisag ree
Ġmetap hor
W hether
Ġmod ification
Ġadjust ed
s ource
ed e
Ġdyn asty
Ġmand atory
Ġdow nt
. (
us ions
dep th
p op
ĠSyd ney
Ġc ater
Ġlim b
ĠSy n
Ġunw anted
ĠFreder ick
erv ice
Ġwild erness
Ġvari ants
Ġstrugg les
Ġju ven
Ġevery body
Ġdemand ing
a uses
Ġlit ter
Ġint oler
ep s
Ġland ed
str ong
Ġveter ans
Ġd warf
ĠDe b
Ġhead ing
Ġtable ts
ĠC L
ĠW olf
Ġpe an
Ġpresent ations
l ip
Ġprior ities
ĠBi ological
cont rol
Ġrequest ed
O ut
Ġuncom fortable
ĠC ON
Ġam ph
ron es
anc ies
ccess ful
A f
ol en
im ore
Ġafter wards
Ġd os
ĠD raw
Ġret reat
Ġcondition ing
ĠBel ow
ĠHam ilton
Ġshoot ing
Ġpub lishing
m ay
Ġpre lim
Ġbl ade
ĠMc K
ĠPat rick
Ġprim itive
Ġsatisf ied
il age
Th anks
Ġfro st
p owered
Ġ ]
T ime
at ivity
Ġas ym
ĠR oc
Ġc ram
Ġwas hed
ĠG and
Ġepis odes
Ġcounterpart s
Ġmon etary
Ġsupport ive
Ġtransl ate
% ),
Ġret ired
Ġur gent
elt a
Ġacid ic
ĠKash mir
ac erb
Ġform ally
Ġstr at
Ġstr ings
ĠMach ine
Ġappro aching
De velop
ing e
st yle
ul se
Ġmembr anes
im ental
ĠT rib
Ġinc ub
ĠBas in
ĠMo ore
Ġd ye
H aving
ĠF ox
Ġdis abled
Ġter rain
Ġtur tles
Ġrecip es
H uman
ĠOr leans
Ġhom eless
ĠCurrent ly
ĠAl b
Ġastronom ers
ĠDougl as
Ġdef ence
ĠIm ages
Ù Ĵ
Ġd aughters
ig e
Ġr ust
Cl ass
D av
p iece
eng ine
Ġrig id
ch a
ĠS ab
ĠF ried
Ġ18 50
Ġsusp ended
Ġt ears
ĠO w
Ġpropos als
Ġcar ved
Ġbl oom
Ġ18 0
Ġport able
Ġadul thood
d ependent
st ock
com put
Ġaccording ly
k g
ĠCon sequently
Ġbul bs
ĠExt ension
Ġam bit
ĠAl cohol
Ġmyster ious
V I
Ġrecommend ation
Ġpil grim
Ġprelim inary
Ġfail ures
Ġmedic inal
Ġple asant
Ġtri angle
) )
Ġmat ching
Ġsex ually
Ġfol ks
Ġembra ce
ra ul
op hers
Ġillust ration
Ġdefic it
Ġh ub
ĠK y
AT E
ĠLt d
h ol
Ġl ion
Ġint im
Ġpress ing
Ġquestion na
Ġpuzz le
Ġpec uliar
us ually
Ġr ash
Ġgra zing
ĠChar acter
Ġsh ame
Ġpal ace
Ġdes cent
Ġam mon
Ġtrans action
ĠDi agn
Ġlect ures
Ġl in
ĠC ust
Ġinf est
Ġsm ile
ĠL ive
Ġw ishes
he um
Ġapp les
Ġcar go
Ġcort ex
c ap
n ational
cer pt
Ġdel icate
Ġapp ar
Ġret ention
Ġmus h
rolog y
ĠAntar ctic
Ġdesign er
ra ce
ĠP ent
per ature
Ġrec ruit
Ġauthor ized
Ġburn s
Ġgod dess
ĠSar ah
Ġfeather s
end ix
Ġep ile
Ġbe aches
Ġun ions
Ġclim b
l ie
Ġ6 8
ĠAnd erson
Ġcomb ines
Ġelectrom agnetic
Ġ18 80
Ġprocess or
Ġbirth day
Ġgard ening
Ġpip eline
he rence
Ġst ro
ara oh
p hen
ro st
ĠO ak
ight ing
er ce
ĠS now
Ġv ascular
Ġcolor ing
Ġstreng thening
ester day
ĠPen insula
ĠYou Tube
Art icle
Ġdram a
Ġharvest ed
Ġan k
ĠH ug
Ġperman ently
Ġindo ors
Ġor ch
Ġpot ent
uten ant
ĠT u
ĠH ait
Ġantib ody
Ġneighborhood s
ĠN urs
Ġinter ven
Ġworkshe et
Ġchromos ome
il ies
Ġinf rared
Ġanx ious
Ġtem plate
Ġindu ce
Ġrecon struct
Ġdep ressed
Ġ6 1
Ġparam eter
ĠAccess ed
in ar
ĠD ate
Ġany way
Ġform ats
ĠAn th
Ġlet ting
Ġnetwork ing
Ġmoment um
Ġdign ity
ĠEconom ics
al ry
ĠCol omb
light en
it ated
Ġschem es
l en
Ġinc om
Ġtour ist
Ġin exp
ĠE V
Ġinst inct
Ġequ ilibrium
cul osis
rep resent
v ar
ĠH ud
ke eping
Ġab ortion
Ġwhere ver
Ġpot ato
Ġn urt
Ġbe verages
Ġfact ories
Ġerect ed
e an
ĠL anc
Ġemp athy
t em
Ġprohib ited
ill er
ĠF unction
ĠAng lo
ĠTest ing
Ġe ager
Ġexclud ed
Ġre pt
ĠE sp
Ġhop ing
Ġpurs uit
Ġb ureau
pl er
Ġsim ulations
Ġflow ering
Ġlower ing
Ġbare ly
ĠU ntil
B ook
at is
ell o
Ġwater ing
Ġtom orrow
Ġmon arch
Ġnas al
ĠC zech
Ġab st
Ġpart ition
ef t
sp eed
Ġrul ers
ĠTra vel
Ġp umps
ĠR os
plic ity
new s
Ġap ost
Ġalle v
Un iversity
ore sc
Ġo un
Ġspec ify
Ġclar ity
m ath
all ic
Ġneighbor ing
ct ica
ĠH art
ĠTh ailand
Ġinvest ing
Ġexcept ional
Ġs our
ĠE C
ĠY e
Ġcr ude
Ġmicro organisms
Ġappropri ately
Ġteen agers
Ġtou ching
b ling
ĠL ank
Ġed it
Ġperiod ic
ĠJud a
Ġoccas ional
ro ts
Ġphosph orus
Ġan ts
1 50
Ġwe ed
ĠN C
ĠTe ch
Ġfle e
Ġfor cing
Ġlaw yer
Ġspot ted
Ġst amp
mon th
im s
ĠH ope
ĠCho ose
B o
ĠE instein
ard less
ĠS A
og rams
ĠBl ock
Ġex acerb
Ġworth y
Ġalign ment
ĠN ile
Ġutil izing
ĠNap ole
al g
Ġorgan izational
Ġcivil ian
bre v
es ar
ĠM oscow
Ġtr unk
On ly
Ġtrou bles
rag on
Ġsn ack
v ia
RE E
ĠBet ter
og ical
Ġinf erior
yp ical
Ġpet roleum
Ġfirm ly
c hem
ut o
ĠA er
Ġimm ers
m l
ĠP ack
Ġwell being
Ġbus h
ĠBab ylon
Ġo scill
Ġhe s
ĠB urn
Ġad hes
Ġj ar
Ġresp ected
Ġstraight forward
ĠNig eria
Ġp ile
ĠD ocument
Ġfree zing
Ġentreprene urs
el le
We b
Ġdin osaurs
t ar
it ches
au nt
ĠEx ercise
Ġjew el
ĠF ile
ac hers
Ġac re
Ġsupp orters
Ġcompr ises
Ġdisapp oint
ĠOtt oman
A ust
ph a
ob ia
Ġtem ples
br ates
ĠT itan
Ġinvent ory
Ġdeliver ing
p her
Ġsing ular
Sim ilar
atab ase
ĠR A
Ġar ises
Ġed itors
Ġdefin itive
Ġtraged y
Ġst ocks
op sy
ĠB ron
Ġper ceptions
Ġmor ality
Ġ194 3
Ġnation wide
am an
Ġall ies
Ġf riction
ĠFor um
Ġlive lihood
Ġbase ball
Pub Med
Rel ated
o vers
Ġa esthetic
Ġpract ically
Ġemploy er
ĠLG BT
J uly
au x
Ġdifferent ial
Ġ10 1
c ard
Ġt ie
ĠTh om
ĠV erm
Ġlear ner
ĠCle ar
O U
Ġa ug
Ġan a
Ġy ards
if iable
ast ically
pl ain
ĠSoft ware
Ġreflect ing
Ġde af
Ġtarget ing
ĠB art
Ġlight ning
Ġdom ains
Ġjud icial
ĠT erm
Ġclaim ing
Ġult rasound
on ed
Ġphilos opher
Ġveterin arian
w alk
ĠH PV
Ġ18 90
ran ch
S y
ĠW right
Ġhot el
The ir
Ġreprodu ce
Ġshel f
RO M
ĠT ob
ous ing
ĠEx cel
r idge
Ġsub mar
Ġvari ant
Rem ember
ro d
Ġ19 10
ĠCh air
Ġeas iest
ĠRec ent
Ġne arest
Ġoff ensive
pro f
ĠHar ry
T op
le ys
Ġdisc ount
W omen
ens ing
Ġdes ires
Ġrel uct
Ġfr ight
Ġmic row
aret te
ĠUnivers al
Aug ust
Ġlast s
Ġap nea
Ġfriends hip
? )
g ly
am ation
Ġpl ag
aut ions
ĠPlan et
Ġempir ical
10 16
Ġ196 1
ĠAnn ual
O G
Ġst ew
Ġcryst all
ĠP i
omet ry
Ġth ir
Ġsp ill
Ġaltern ate
c ils
Ù ı
Ġ194 7
Ġclick ing
Ġt y
op oly
ĠB ase
Ġmem orial
ĠPl us
ann y
lim ited
Ġfif teen
Ġambit ious
Ġgo ver
ĠAl ber
w elling
ĠH yp
ĠG rowth
ĠPh arm
Ġver ify
Ġexpress ing
Ġagg ression
Ġaster oid
Ġp erenn
Ġd olph
Ġu pt
Ġtransp arency
ES CO
Ġnot ing
ater n
iat ry
Ġl augh
ri ans
ĠProgram me
Ġcomp elling
Ġcur iosity
Ġcommunic ating
Ġeth anol
Ġex it
get s
ĠK ind
now ned
ĠNorth west
ĠWal ter
Ġreef s
is ol
Ġspec ially
un n
Ġmin istry
Ġcor rupt
Ġhand led
199 8
ĠI R
ans k
Ġtr ash
Ġwood s
Ġcool er
ĠAp ollo
n ote
âĢ ²
ĠP s
AR S
Ġstimul us
Ġadvent ure
o in
z es
Ġtrust ed
ĠImpro ve
ĠHispan ic
Ġbu g
ĠEv idence
Ġber ries
â ĪĴ
Ġa u
ĠT ell
olit ical
p ret
le m
Ġh ob
ĠT ool
art z
L a
ant ry
Ġorgan izing
Ġmat ches
ĠN uclear
Ġfant astic
m id
Ġprox imity
ĠD ental
ne ath
Ġrad ius
ĠTai wan
ĠT aking
ject ive
Ġcar n
Ġdr ill
Ġunc on
o T
Ġshort age
Ġviol ation
l aim
Ġt ire
ĠB rand
ace ous
ound ing
Ġsuper vision
Ġabnormal ities
Cons ider
7 00
ow ing
Ġsh ops
Will iam
S C
Ġd a
ĠVictor ian
Ġs ie
Ġs ins
Ġst oring
Ġlay ing
Ġcolor ful
Ġassemb led
Ġprior it
Ġdemand ed
Ġi P
il i
ĠPre vent
Ġrespond ing
ĠIndust ry
c ost
ore st
ĠG round
Ġmuseum s
E v
ĠDom in
F r
ĠC ond
St ate
Ġexc ite
e er
ĠMan ual
Ġcosm ic
Ġtempor arily
Ġ19 19
min ute
R N
w orm
H ar
S um
ĠQu estion
Ġod or
ĠR on
ĠPro ceedings
t i
ĠF est
Ġtreat s
Ġcop ing
Ġsign ature
Ġhead quarters
Ù ħ
Ġm ol
im eters
ĠG ib
Ġprof iles
Ġcompan ion
Ġpet ition
ĠPub l
Ġpred iction
ĠR u
Ġkind ergarten
ĠBro ther
og ly
Ġcl ues
Ġgrass es
ĠF oot
Ġse ism
Ġstrong est
ĠAlex and
ĠPart ners
________ ________
Ġgradu al
Ġbul b
S D
l an
op ard
Ġfart her
Ġpull ing
ĠT s
Ġdiff ers
Ġspect acular
h ouses
Ġa rose
ĠIn it
disc iplinary
ĠB eng
Ġv iv
ĠE ve
un ks
Ġconsist ency
Ġball s
Ġl iability
ĠW ords
Ġop io
Ġcontact s
v ic
E duc
O K
ĠPol ice
ens is
Ġrelax ation
ĠFed eration
Ġshould ers
enn y
Ġfluor ide
ul us
Ġsc ans
Ġfil ed
ĠAg reement
D ay
Ġpres erving
Ġ18 60
Ġhuman itarian
Ġfl ags
Ġstress es
b oth
ĠO ri
te g
ord on
acter ial
Ġbreak through
Ġtre asure
b irds
ĠD er
ĠD ark
ri ages
ache lor
Ġsatisf y
c op
ĠS eed
iv ated
There fore
B as
ch ildren
ĠSo il
ul as
Ġ9 8
ER E
Ġshar ks
Ġg low
Ġst ating
Ġweek end
Cont in
Ġsurprising ly
Ġsh ark
Ġtra ced
Ġconf using
Ġtact ics
H R
char ge
Ġcommission ed
Ġan emia
Ġanim ation
Ġ196 2
Ġrespond ents
Ġguarant eed
Ġswit ching
ĠAd ditional
ĠEd itor
Ġanaly tical
Ġemphas ized
Ġcon ve
ĠAct ivity
Ġst ain
Ġ7 7
ĠChrist opher
ĠB ull
ĠTh ank
ĠAct ivities
Ġwel ding
Ġp ad
ry st
Ġtru cks
Ġvers es
w idth
ĠH az
Ġjust ify
Ġent ries
ĠPh oto
Ġparent al
ĠColumb us
is an
os itory
ĠN an
Ġbur st
oub ted
Europe an
ĠIn v
Ġatt raction
Ġnut rit
Ġexcept ions
he art
Ġbat t
Ġ196 6
osynt hesis
ch y
iz able
Ġc itation
ĠQue ens
it ably
Ġpos es
Ġhier archy
M et
we g
Ġatt orney
Per haps
Ġparad igm
Ġal igned
ij ing
Ġbackground s
Ġd ens
ĠS ierra
Ġprodu cer
ur ate
ab y
ring e
Ġexerc ising
Ġgar lic
ĠRef erence
V ol
Ġg ig
ĠO K
Ġep ic
cons cious
Ġsurre nder
Ġh anging
ad ers
ard o
ific ant
Ġrev ision
ĠT ips
Ġlink ing
bre aking
ĠLe v
ĠGuid elines
S R
Ġd ermat
Ġtime ly
Ġtext book
Ġcapital ism
Ġmanip ulation
gener ative
Ġeleph ant
f und
ĠK a
old ing
Ġtrans ist
ĠCour se
Ġ âĢĻ
ĠS alt
Ġchar ter
Ð¾ Ð
ĠEvent ually
Ġcannab is
d ose
in cess
du e
Ġup ward
Ġrele vance
threat ening
Ġsimpl er
Ġdecl ining
Ġimper ative
ĠKh an
ĠEmer gency
Ġt ide
em ics
f lu
Ġlim bs
Ġfit ted
S chool
âĢ ł
Ġg ym
Ġsan itation
Ġoblig ation
d y
Ġmaxim ize
ĠCit iz
ĠT R
ĠW at
Ġaut onomy
Ġqual itative
ĠD ra
Ġcomp ress
Ġcomm erce
Ġincorpor ating
Ġpray ers
in ters
ot te
ĠTr uth
ĠE L
Ke ep
ii i
Ġas leep
Ġrecogn izing
ĠCur riculum
he w
Ġsh ower
ĠV acc
Ġke en
Ġbuff er
Ġdec iding
Ġterm ed
L ist
Ġad olescent
Ġt ags
ĠSp ect
i age
Ġflu x
F R
Ġb ol
Ġf ut
Ġd op
Ġre ass
Ġrun off
B rit
D esc
ul ph
ĠD h
Ġchar ity
Ġvot ed
Ġmac ro
Ġ20 23
Ġreact or
Ġplanet ary
I d
ĠS O
Ġ14 0
Ġce iling
Ġprivile ge
ĠUk raine
ĠT a
ĠP un
" ;
ĠV ien
Ġunder water
Ġmat urity
Ġt ales
Ġbul let
it ol
ĠTh or
Ġprevent ive
Ġst ays
Ġpat ron
ĠWe ight
ĠHow ard
Ġexhib its
Ġholid ays
Ġcompat ible
Ġlike wise
Ġcru c
Ġdestro ying
spec ies
Ġ18 70
Ġter restrial
ĠE ating
Post ed
S w
ĠSp orts
ĠPar ks
ĠAntar ctica
ad en
ĠM olecular
Ġact ed
Ġastr onomy
ĠPro b
Ġredu ctions
uls ive
H ome
ĠE ric
ĠN elson
Ġ8 8
Ġgrav itational
od ium
Ġappro ached
ĠW ould
Ġdon or
ĠG ram
ĠCons ult
Ġcommerc ially
Ġnest ing
Ġradical s
Ġmod er
ĠJ oe
Ġport rait
Ġlik ed
Ġdepos it
Ġs q
Ġcol i
mark et
ĠT ypically
Ġsupp ress
Ġmit igate
ĠProble ms
p ot
it o
D NA
ol ics
Ġcou ples
Ġinexp ensive
ĠU g
Ġdisc ont
Ġgau ge
Ġlapt op
Ġd irty
Ġh ollow
ab ited
ĠE ye
oc ide
ĠJ oint
Ġsal vation
Ġcra w
et ric
sc ient
Ġh ay
Ġarm ies
Ġpark ing
Comm un
re tt
om nia
ur g
ĠC and
verse ly
point s
ĠSqu are
Ġen force
Ġres ort
Ġtest imony
Ġprop ri
ĠCom ment
Ġdocument ary
199 6
ĠSaf e
m ans
Ġm ad
Ġl ips
Ġn ests
ĠN ag
Ġexp orts
ĠAmeric as
Ġ7 8
Ġconc ert
ĠArch ived
ĠEvery one
Ġsovere ignty
um m
ĠL oc
Ġfinanc ing
ĠHou ston
b ot
× Ļ
Ġle ather
Ġmusic ians
ĠRec on
l ab
Ġf ox
Ġin appropriate
est hesia
ĠF ocus
ene z
Ġfast est
Ġdeal t
Ġoverse as
Ġp seud
Ġserv ants
ĠSud an
Ġel astic
Ġappear ing
ĠM s
Ġmar ry
ĠTo o
Ġtut or
M ark
or rh
ĠC C
Ġbroad ly
Ġgastro intestinal
f ting
m n
Ġl ucky
atur ated
ĠNev ada
ĠComp an
ann ah
ĠSw iss
Ġped est
Ġrecre ational
Ġfol iage
Ġgl uten
ards hip
Ġinject ed
ir ts
Ġparticip ant
hold er
Ġminor ities
ĠF eed
ĠAd vis
Ġbrand s
Ġm ate
on i
Ġcontin ental
Ġlov es
Ġcontamin ants
Ġadministr ators
Ġcorros ion
Ġspec imen
Ġadapt ive
Ġesc aped
h n
Ġ 00
er red
Ġv end
ck ed
Ġcr imin
hes s
20 18
Ġclean er
Ġhur ricane
Ġcoron ary
Ġadmin ister
Ġn a
Ġrestaur ant
Ġcomp ly
ĠCommon wealth
w ick
Ġn ights
ĠR un
ĠArt icles
Ġme g
Ġec o
Ġ7 4
Ġve in
Ġfract ure
ĠMethod s
Ġpredominant ly
S uch
t an
ĠC rown
Ġen velop
is ite
Ġremain der
Ġshif ting
ur b
Ġhe ct
Ġprot ests
Ġpost er
Ġdeclar ation
p ublic
Ġrece iver
Ġintrodu ces
Ġstimul i
ĠHop kins
ar o
ly wood
ĠI g
ĠHig her
ĠS in
Ġrecon struction
Ġcub ic
p a
Ġsyn chron
ĠBapt ist
oubted ly
re port
Ġbl end
Ġoccup ational
Ġ esp
op en
Ġhe ll
Ġaccount ed
rit er
flow er
W H
Ġm arc
Ġsubject ive
ĠAm b
ĠT her
Ġcont est
Ġqu otes
199 7
Ġvalid ity
ĠClin ic
Ġthe or
Ġp ist
Oct ober
ĠE u
Ġnumer ical
Ġrend ered
Ġblood stream
Ġselect ive
Ġdemonstr ating
ĠW ang
199 0
ĠÃ Ĺ
organ ic
eb ra
Ġhon our
Ġtal ent
J apan
ld er
Ġaccess ibility
head ed
ĠProv ince
Ġadvert ise
Ġfert ile
L Y
M R
s ize
ixt y
ĠScript ure
ĠHud son
Ġde ployment
ox ic
ĠAct s
ĠB ed
Ġdecl are
Ġcyl inder
Ġadv ise
Ġnav ig
Ġcor rection
T R
Ġright eous
ĠIsa ac
L ess
ĠP RO
A IDS
I B
Ġsal ary
pro v
u pp
Ġh its
Ġfe eds
ĠTechn ical
Ġsoc ietal
Ġser um
Ġinvest ed
NA SA
Ġroutine ly
aud i
Ġd ive
ĠAn imals
itud inal
Ġembry o
ĠB lu
L ong
Ġup coming
Ġfib re
Ġgover ning
eral d
% ).
n utrition
Ġh ipp
Ġhist ories
Ġcommand ed
ĠBalt imore
Ġdec k
any on
oll en
Ġcourt esy
ĠB att
Ġcompl aints
Ġfisher ies
Ġgrocer y
Ġd ancing
ig uous
Ġsp ider
Ġp ear
Ġr if
oph il
rate gy
Ġhar ness
ĠWe ather
Ġre wards
Ġharm on
Ġcook ies
Ġturb ine
raul ic
Ù Ī
Ġto y
ĠB os
ne x
Ġenh ancing
osex ual
Ġb ub
Ġ9 6
Ġmar ijuana
Ġunf ortunately
Ġadequ ately
lear ning
ĠJuda ism
Ġfaith ful
ĠFre qu
Ġdi abetic
Ġwhere by
Ġsimpl est
ĠMalays ia
M E
Ġwe ights
ere rs
Ġref use
Ġsevent h
Ġt ended
Ġden om
lighten ment
á ¸
Ġterrit orial
ĠSe attle
Ġsum mit
Ġconclud es
ĠArk ansas
Ġb aking
Ġl ady
ĠU RL
Ġcomp osite
Ġlegisl ature
fol io
Ġ 000
Ġsh ots
Ġel imination
Ġpool s
Ã ¦
Ġfun gal
Ġhost ed
Ġdrag on
Ġs isters
Ġfavor able
Ġacceler ation
Ġcart ilage
Ġirrit ation
Ġo ven
Ġm as
ri ors
20 19
Ġserv ant
is ive
Ġkn ife
Ġwh it
Ġde forestation
Ġcent ered
Ġdel icious
Ġflu orescent
ĠBen efits
ĠRob inson
W A
Ġbelong ed
Ġc ables
ur as
Ġrese mble
Ġele g
Aut hor
at ics
Ġam endment
Ġemb arr
ĠAcad emic
Ġauto immune
Ġex empl
Ġ7 1
Ġ7 6
Ġton nes
Ġscr atch
Ġprol if
Ġunder neath
Ġstress ful
Ġclim ates
ĠPortug al
us er
Ġhand ed
less ness
Ġtomat o
Sept ember
e ur
âĢĿ ).
Ġev olving
gen cies
e at
ĠS QL
Ġ194 9
Ġbehavi ours
Ġconstit utes
Ġtri um
Ġball oon
Ġload ing
Ġpenal ty
f a
an alysis
Ġper me
ĠEc ology
ĠMem ory
ã Ģ
ĠT rue
ĠF riends
Ġtra fficking
Ġcur t
eg ree
Ø§ ÙĦ
ĠArgent ina
ĠT ower
th irds
Ġfo am
G iven
ĠN AT
Ġ ib
se arch
iqu ity
ĠMem bers
Ġcontroll er
Ġshif ted
Ġu mb
Ġ193 3
I H
le ading
Ġk ills
Ġfl ame
ĠCl inton
h u
te es
Ġhar assment
Ġmist aken
trans mit
r ings
Ġp rize
ĠA venue
Ġpot s
Ġvacc inated
ĠDet erm
ĠIce land
Ġpock et
x iety
ĠPr ice
Ġpick ing
Ġnovel s
Ġad mission
Ġher d
Ġdeb ates
D s
om ics
Ġ194 6
ro it
un ing
Ġnew er
c ience
Ġcon gest
ĠR ow
Ġdisc ourse
ĠRe form
Ġrebell ion
ast es
Ġinj ust
Ġinstrument al
ĠG ab
Ġfe ast
Ġ7 3
Ġsl ides
Ġsecret ary
ĠN ight
Ġrefuge e
ĠProble m
b ian
Ġp osed
Ġgl ue
Ġover night
Ġgen re
Ġconsequ ently
ĠP os
ĠCh ron
ĠFl ore
Ġthr ust
Ġnob ody
s ky
ĠS ay
Ġco operative
Ġn our
ĠM oney
Ġob struct
ĠS kin
Ġk et
ag g
Ġo re
ĠR at
Ġmet ric
ĠAt hens
n osis
Ġsp rou
Ġconst ipation
Ġul cers
he im
Ġpr inter
Ġsch izophrenia
ĠDak ota
Ġs lic
Ġide ology
Ġdem ographic
Ġsculpt ure
Ã º
Ġprop het
Ġf ost
Ġar row
Ġrem inder
20 20
ex pl
ĠGu inea
Ġpack ages
Ġexec ute
ĠTok yo
= "
Ġk ick
z i
el ong
Ġ8 2
Ġdepth s
ĠBC E
Ġembry os
Ġdecor ated
Ġdis ruption
Ġm asks
ist a
Ġsens ing
Ġrig orous
Ġc ues
Ġpre st
ĠF if
pl ants
mit t
Ġcompar ative
Ġround ed
Ġh iding
Ġex clusion
ĠT otal
Ġint ric
Ġmark ing
ĠP ed
T E
Ġt we
ĠB irth
Ġpolit ically
ĠDis orders
ĠC anyon
ĠP TSD
int o
ĠSh ah
ĠÂ ±
ĠP le
Ġsqu ir
Ġaud iences
h oe
Ġst icks
ĠArist otle
E c
p ill
Ġd orm
Ġhe d
ĠProf essional
ĠDes ert
ist le
iv ia
y g
se a
ound ed
Ġassist ed
Ġpul monary
ĠPu erto
ĠObserv atory
ĠB ry
Ġpol es
Ġadjust ments
Ġ6 9
G reat
um ble
ĠG a
Ġsh rubs
Ġref lex
ĠDe ad
Ġprec autions
Ġmis under
Ġgar bage
ĠC art
ĠM ercury
us c
Ġsew age
Ġincom plete
ĠC yp
ĠAl i
Ġvis ually
Ġcred its
Ġdehyd ration
Ġprov incial
ĠArab ia
j e
on ian
ĠMin or
p i
Ġto es
Ġcle ared
A tt
U P
op a
Ġrel ied
Ġbo om
Ġge ological
ĠHar bor
Ġmus cular
oc hemistry
ec hes
Ġinterpret ations
ĠOcc up
Ġ iod
Ġb ishop
ro ads
ph y
ov al
Ġreg ulating
ĠIss ues
Ġped ag
Ġcareg ivers
e lect
Ġconst ell
Ġbad ly
Ġswe at
ĠCP U
Ġanticip ated
Ġweaken ed
Ġnutrit ious
Ġl amp
ĠL ith
Ġfl ights
icult ural
ĠTra il
B ar
th ree
ĠJ osh
Ġz o
Pub lished
Jan uary
Ġwith stand
rad es
Ġacceler ate
Ġwal ks
oresc ence
am er
Ġqu ery
Ġass ay
Ġg host
ĠB and
ĠQue bec
T I
et ed
ĠS ad
ĠPl ato
ĠRel igion
O h
id ation
ign ant
Ġadvoc acy
ĠNich olas
Ġmet a
Ġve t
Ġopp osing
Ġintern ationally
ĠSt ew
ĠK u
Ġsmart phone
Ġment ally
Ġut ilities
ĠMe asure
Ġscholars hip
ĠY ale
Ġest rogen
Ġlif esp
f in
Ġs ap
Ġex otic
Ġfl ora
Ġcor related
Ġh ired
ĠT itle
Ġ Å
Ġne urop
Ġcount ed
Ġviol ations
ĠProg rams
Ġbutter flies
Ġturb ines
Ġglac iers
Ġmit igation
Ġpestic ide
ĠN ear
Ġend less
G s
Ġa il
Ġ3 50
ograp hers
am ics
Ġf ence
Ġany more
Ġ8 4
Ġher bal
Ġpun ish
ĠHy per
spe aking
D I
u ce
ĠP oor
Ġfree ze
Ġuter us
P N
Ġdispl aced
ĠQu ant
Ġ iv
ĠJ os
lud es
ĠAl most
Ġearn ings
ĠResp ons
Î ¹
ĠSt ra
ĠPal ace
ĠExpl ain
D ate
es ome
ĠD elta
ĠPre p
Ġrat ios
Ù ĩ
ĠRec ords
ĠThrough out
Ġre nowned
oc l
Ġf iscal
Ġgu ests
Ġrestrict ion
Ġcarbohyd rate
Ġeleph ants
ambo o
) ?
el come
ac ies
ject s
ĠInstit utes
Ġdepos ited
ĠLeg isl
ul ator
Ġrecogn izes
h um
ĠI BM
ĠD ry
cl er
Ġnever theless
Ù Ĭ
Ġpl ots
ang a
Ġaccept ing
ĠRober ts
Ġoverl ooked
ĠMic hel
ĠNeg ro
w ere
Ġmon uments
Ġ193 8
Ġmultip ly
Ġmagn ific
ĠBelg ium
Ġdef ensive
Ġcoll agen
Ġblock ing
Ġenc ryption
Ġvit ro
W est
Ġen rolled
Un like
ad er
Ġwond ering
ro v
ĠCom plete
Ġvolcan o
Ġcong ress
Ġfeas ible
Ġa pt
ĠC as
Ġlabor atories
Ġru ins
ĠM ason
ĠM ember
Ġpen cil
c ourse
Ġb ites
AC T
Ġur ge
+ +
Ġtra it
ansk rit
Ġcal orie
ĠGe ographic
ĠCont ent
ĠFood s
ĠEx ample
Ġ ..
ĠA round
ĠCh i
Ġtr im
Ġpack et
ĠVol unt
ĠBe ijing
Ġexhib ited
Ġclub s
Ġcommod ity
ĠMarg aret
i ography
Ġinc omp
Ġgl ad
Ġgovern ed
ĠPrinc iples
p ent
ĠT ut
ĠM aced
Ġsupp ose
Ġnorth west
Ġcar riers
Ġbo iling
Ġsoon er
Down load
ĠPh ill
.... ....
Ġphilos ophers
ias m
ĠM i
Ġv est
Ġqu iz
ĠBe yond
Ġcra cks
Ġchick ens
Ġbeet les
Ġappar atus
as i
ĠL iver
rav iolet
Ġg ospel
ill ary
Ġby pass
Ġdifferent iate
Ġfeat uring
aw ed
ĠHand book
Ġaccompany ing
ke ep
Ġtw in
Ġsou ls
Ġmeth yl
Ġunder graduate
Ġdist ribute
p us
ĠL ate
Ġim plicit
bl ack
Ġalph a
b ecause
ic ism
Ġpl ague
Ġjust ified
Ġ7 9
Ġ8 3
Ġvent ure
Ġ8 1
Ã¡ n
Ġastronaut s
F i
Ġthe e
or o
id ency
ĠM O
ĠR F
Ġaud itory
Ġbreast feeding
iling ual
Ġcatal og
h ind
Ġtou ched
ĠProt ect
Ġprompt ed
Ġcl ause
ĠSt age
read ing
over ing
ĠInstit ution
Ġhost ile
Ġaer ial
ĠFour th
M icro
he it
Ġor nam
Ġstead ily
Ġmisc on
Ġlif ting
Ġadvance ment
ĠPalest inian
Ġeru ption
ĠR io
ĠR ule
G M
ĠB uff
Ġoste oporosis
ĠS ah
Ġrele asing
Ġchromos omes
Ä ±
Ġac ne
Ġv ivid
199 5
Ġ195 9
a ic
Ġse aled
ĠG raph
ov irus
Ġtrans m
Ġwant ing
ĠCan al
ĠSim ple
Be ing
1 10
Ġa ver
Ġbr ushing
ĠGal ile
1 20
ay ers
Ġra pe
Ġw and
ĠG ender
Ġquar ters
ĠSol omon
E xt
ĠE R
rop ortion
Ġe cc
Ġrem n
Ġdifferent iation
Ġmid st
c ultural
Ġd ub
ĠP ier
low er
vironment al
Ġfast ing
th ink
sc ape
Ġsuggest ion
Ġnort heast
Ġset up
Ġ16 0
Ġlov ing
Ġspr ings
S L
Ġw olf
Ġj ury
Ġqu it
A I
re ate
br ate
Ġcollect ively
Ġver bs
ĠRec ord
Ġ19 12
Ġgu est
pe ople
Ġfit ting
pat ient
Ġtow ers
Ġhe lic
ĠSe ven
Ġmer cy
Ġretire ment
n as
Ġin ert
Ġhe x
Ġinher itance
Ġrom antic
Ġ19 15
Ġfrag ile
N O
ĠL ang
Ġexp ose
ĠHe at
ĠAl low
ĠPro duction
Ġliqu ids
Ġsemic onduct
ĠC hem
ĠM ort
ĠMor ris
Ġenact ed
Ġl ag
Ġun int
ĠNot es
oc ur
Ġse am
ĠAb d
ĠAust in
Ġthe ology
ĠI M
Ġch op
ĠGreen land
oster one
Sym ptoms
h o
Ġc emetery
ĠAl t
Ġsuccess ion
Ġrecogn ise
Ġroot ed
Ġadv ancing
Ġgu itar
Ġp onds
ĠD atabase
ĠAn at
Ġemb od
Ġtight ly
ĠSil ver
Under standing
ĠW i
Ġart illery
Ġmat hematic
ĠCE O
g age
m ont
Ġm asters
ĠT ypes
ĠA le
Ġter r
ĠCommun ications
Ġ193 6
Ġgu ilt
Ġpartners hips
Ġcomprom ised
Ġt rop
Ġaccount ability
Ġeru pt
m aker
Ġsouth west
ira cy
Ġaqu arium
Ġtechn ically
Ġ9 3
f erence
Ġan terior
Ġche w
Ch o
Ġspread s
Ġor n
Ġwell ness
vent ional
Ġsl opes
Ġscan ning
n orm
ĠSh are
Ġd ots
Ġcoll ision
Ġhun ters
ĠMult iple
Ġspons ored
. [
ĠK er
Ġclean ed
Ġ195 7
ĠFin land
Ġass im
ĠCl oud
Ġrandom ly
T ype
c hest
m ination
Ġt ense
ock ing
Ġmar row
ĠLe ban
Ġinstall ing
Ġanat omy
ĠL am
Ġprec urs
Ġsqu ares
Ġdetect or
d ays
Ġcom et
Ġcomment ary
Ġt une
Ġse gregation
Ġ195 6
Ġcoord inated
ĠLank a
Ġm aj
bo ards
Ġexplo it
ĠVien na
au coma
Ġ193 7
B re
S outh
w al
Ġsh aft
ĠJ ob
ass oci
Ġbod ily
im icro
ay an
Ġcan on
ere r
Ġj un
Ġdes erve
ĠBr un
Ġtra ils
ĠAd m
Ġepit hel
H C
J ew
Ġab oard
Ġbo ot
Ġc ens
is ure
Ġmar ble
ĠAll ied
Ġcomplement ary
Ġpursu ing
Ġn m
Ġg rief
hist oric
oun ter
Ġsqu ee
an ical
Ġu plo
ĠF ortunately
00 00
Ġath lete
ĠFram ework
Ġp m
Ġbu nd
Ġopp onents
work ing
Wh ite
Ġthe atre
Ġp iv
Ġph yl
the ir
ĠCon cept
ĠDyn asty
Ġre use
od a
Ġ19 16
ats on
Ġimmig rant
Ġru pt
Ġbron ze
Ġlist ing
Ġcivil ians
Ġstri ps
ĠUp on
Ġf iring
ĠB L
ĠPh ase
Ġlim estone
Ġcorresp onds
Ġancest or
Ġinn ocent
ary n
Ġtext books
2 50
Ġg amb
ĠS L
Ġreason ably
ĠVirt ual
Ï ģ
ĠS W
Ġcav ities
Ġrepresent ations
ĠProduct s
ĠA CT
Ġwor m
Ġtable t
ĠOrgan ic
Ġintent ions
Ġhol istic
b rain
Ġc um
ed ience
row se
ĠMad ison
at to
Ġman ure
ĠSt rategy
Ar ch
ĠNep al
ĠPolit ics
Ġdisturb ance
s ign
ĠG ordon
Ġcomp rehend
Ġro pe
Ġfle w
Ġfract ures
d ata
m ount
Ġrec omb
Ġment ions
ĠCh ronic
ĠFor ces
Bel ow
ĠV ision
Ġmanip ulate
Ġgener ic
ĠMan ager
T reatment
ĠIn j
Th ank
az ines
ateg ory
ĠByz antine
Ġth under
ĠU l
ĠVis it
Ġtransc ription
heum at
N E
ĠR ot
Ġcomp ressed
Ġd urable
ĠUN ESCO
p ine
ĠShe l
Ġcred ited
ĠMor gan
Ġoutl ines
ĠNapole on
Ġallev iate
b irth
or ia
im ation
Ġse als
ĠIn fect
Ġperform s
Ã© s
OR E
Ġsick ness
ce phal
be y
ĠCat al
Ġconven ience
ĠResp onse
Ġbless ing
amil iar
ĠG ate
Ġ20 50
Ġbra ve
Ġlock ed
Ġlith ium
ĠH E
ach ment
Ġart work
Ġdon ated
Ġheav ier
ĠUs ed
Ġarbit rary
s ocial
ĠF L
ĠL A
Ġprob able
Ġcoc onut
ĠCath olics
ĠThom pson
t is
um en
Ġparent ing
Ġdivid ing
Ġignor ance
Ġm arsh
ĠH ills
ĠDon ald
ot ine
t own
if ting
Ġ19 29
S QL
ĠC row
f uel
ĠG IS
Ġ8 7
Ġdefin ite
ĠAp ost
Ġtoler ate
Ġweakness es
Ġimbal ance
ĠL ORD
Ġall iance
Ġinter section
Ġdetect ing
h alf
s ki
ĠR ange
Ġex agger
Ġk ern
Ġdet er
Ġpress ed
ĠMan ufact
Ġassum ing
Ġdivor ce
ĠI l
Ġtra gic
Ġsou p
Ġclim bing
Ġmain land
Ġemphas izes
ĠRail road
Ġsovere ign
ut able
ĠL E
che ll
Ġattend ance
ĠAlber ta
ĠT ow
ĠCh anges
Ġcor ners
Ġprop ose
Ġengine ered
Ġn ail
ad ies
Ġam end
De cember
Intern ational
ĠVill age
Ġac ou
ĠTerrit ory
Ġthe ft
ex per
val ue
IN E
Ġdu ct
ĠC ould
ĠInd o
ĠPh oen
g raph
and al
ev a
Ġc ivic
le vant
ĠE t
Ġreg ression
Ġ193 5
ĠSer ver
ĠF ah
Ġend emic
Ġhous ed
ĠRel ated
Feb ruary
Ġext r
D ig
c ur
ĠB ec
Ġmon itors
Ġpost erior
Ġtur tle
Ġexpect ancy
Ġdro ve
Ġpreced ing
Ġrepet itive
Ġn od
Ġfor um
ri pp
son ian
Ġ195 8
Ġfavour ite
iv ism
Ġvis itor
ĠZ ion
zz le
Ġbless ed
ĠBM I
Ġenjoy ing
Ġhyp ot
Ġepile psy
ain ted
ub ric
Ġresearch ing
Ġlength s
bol a
ĠCh annel
Ġterror ism
Ġhum id
ed y
Ġple ased
Un ited
w ritten
Ġw ip
al ion
ud a
Ġpat ience
Ġ9 2
sp ace
Ġindirect ly
Ġ19 11
Ġtrans g
ix on
Ġpath ogen
olith ic
Ġexcite ment
ĠC av
Ġsome body
Ġbelie ving
he rapy
ut ter
Ġcr an
ĠUS B
ĠCa esar
Ġcon ceived
ĠZ one
Ġm ating
Ġth rowing
Ġch ord
Ġparad ox
? ?
Ï Ħ
Ġn aked
rim ental
" ).
O H
e lectric
ĠT ask
ict ional
Ġkilomet res
ĠSus an
Ã £
Ġt sun
N orth
Ġc ant
Ġre nal
st ones
ĠAr n
Ġdem ol
Ġsuppl iers
Ġdisplace ment
m ap
Ġc ite
ot onin
Ġdis l
Ġtra ps
ĠZ oo
ĠAut ism
Ear th
y our
as ury
Ġimp ly
Ġover head
Ġ8 6
AS T
ĠAgain st
vel and
Ġun stable
Ġmyth ology
Cont act
Ġpropag anda
Ġex terior
ĠOffic er
Ġscholar ly
Ġfrog s
Ġb ent
ind ex
Ġreve aling
re r
is ers
ĠP ale
gen ic
Ġnon profit
ĠSte ve
Ã¼ r
ac cept
Ġche wing
Ġspecific ations
ĠLy me
oglob in
G R
ic us
ric anes
Ġgra pes
ĠLet ters
Ġmerch ant
st ory
ĠE ver
Ġcl ergy
ile m
Ġabol ition
Ġs outheast
Ġe cho
ĠK id
Ġlaw yers
ĠPer formance
Ġdisput es
Ġrep ly
other mal
Ex per
Ġf ocal
se en
ĠChall enge
Ġb end
Ġres in
Ġcomput ational
ĠCo ord
ĠPan el
o ys
ĠL en
Ġvisual ization
ĠOver all
Ġpup il
Ġur anium
Ġrecre ation
Ġtrium ph
D ue
f ed
00 1
ĠPl ate
Ph ot
r ill
ĠD ream
Ġpop ulated
Ġunderstand s
Ġlow ered
ĠEgypt ians
C ross
P op
rit ical
ple asant
Ġinst antly
Ġcle ans
ĠGall ery
ed a
Ġd awn
Ġdet ox
Ġ195 4
pat hetic
ĠFa ith
Ġhe red
Ġadop ting
Ġc aves
ĠD oc
Ġinv ite
Ġplace bo
Ġbra ck
Ġadjust ment
in os
Ġalt ar
Ġhero es
Ġr ush
Ġsuccess or
ĠAust rian
ĠNor weg
Ġnan op
Ġintr insic
er get
ĠO wn
Ġopp ression
Ġacceler ated
Ġmicrosc opic
F F
Ġo t
Ġgr ate
Ġer ad
ĠInf lu
Ġsp iral
Ġun ch
ĠCal cul
Ġconv ince
Ġkne es
ĠRus sell
ul ing
og g
Ġj e
tern s
Ġfe ared
us hes
Ġb ibli
Ġret ina
Ġcy cling
Ġlog ging
Ġcompar isons
ew able
Ġgl ut
Ġblo oms
ĠAl an
Ġbo il
Ġdam s
S N
Ġco il
Ġhem isphere
ĠSing h
mind ed
Ġw are
ĠT el
Ġhand y
pr ising
icular ly
U RE
Ġab brev
ĠLike wise
Ġinform ative
Ġneg lected
ĠM R
Ġbutter fly
Ġgly c
Ġdisadvant ages
' '
Ġbl ast
Ġdark er
Ġkill er
Ġback ed
Ġgl oss
Ġrepl ication
Ġrecip ient
ĠTransport ation
N ever
Ġor ph
L ook
Ġair plane
Ġcond ens
Ġhyd roc
Ġutil ization
Ġreject ion
Ġrank ed
ĠNorm an
Ġdece ased
at ter
st ra
Ġenthus iasm
Ġthe ater
ĠS audi
ĠR idge
Ġfl oss
Ġed ible
Ġy esterday
ĠFl ood
Ġbicy cle
x x
ĠHe aven
lo ads
Ġult ra
N ovember
Ġb ru
ar in
ĠJ oy
Ġ19 13
Ġdet rimental
in burgh
els ius
Ġlearn s
Ġbre w
Ġsum m
iam i
Ġvoy age
ĠAlf red
S I
Å «
ie g
ĠCon struction
ĠBl og
Ġinvestig ators
ĠLaw s
Ġ195 3
Ġsurvey ed
Ġoverl ap
ĠCrit ical
) (
Ġdevelop er
Ġpass words
Ġstro kes
ĠD a
ĠReg ular
Ġsup reme
K ing
h ad
ĠA BC
Ġle mon
Ġcont ag
Ġbel oved
ĠLess on
c irc
ĠTra ditional
Ex pl
Int erest
ĠHarr is
Ġd ot
Ġgovernment al
Ġposition ed
ĠÎ ¼
Ġblind ness
m o
Î µ
ĠH orn
Ġwin ner
pos itive
ur i
ra wn
Ġconf idential
eg rad
Ġflo ors
Ġwed ding
Ġcha os
ĠP arent
ĠF u
Ġcap ita
Ġfertil izers
Ġpe pt
port ant
ĠDo ctor
Ġarchitect s
cont rolled
oth ic
ĠAn na
ĠPr ivate
Ġund oubtedly
ĠCamp bell
Ġemit ted
ĠLic ense
Ġmen ing
ĠJu an
ĠTechn ologies
ĠIll ust
ĠPrinc eton
E st
E lect
Ġev apor
ah o
Ġenterpr ises
p ox
Ġpain ter
Go vern
Ġanten na
/ .
ĠA bs
Ġ195 5
ĠColon el
Ġu b
Ġpr ince
Ġloc om
Ġjuven ile
Ġn atives
Ġinc on
ĠBrazil ian
Ġmim ic
enez uel
Ġimpro per
Ġcoal ition
ĠGet ting
M al
âĢ ³
Ġparas ite
n ik
ĠS ky
ĠMo z
Ġceremon ies
Ġcasual ties
G erman
ĠT an
Ġ12 5
Ġur ged
Ġnotice able
ĠAtl anta
Don ald
Ġemotion ally
m el
Ġl acks
ĠP ic
ĠB eth
Ġup grad
Ġcons erve
Ġc age
Ġin land
ware ness
ĠAd vent
Ġassum es
ĠLiter acy
Ġg ates
Ġman eu
Ġoccup y
Ġperf ection
Ġd ip
il ization
Ġout ward
Ġam id
Ġarr iving
Ġpsych iatric
ĠVal ue
Ġtuber culosis
Ġc ovenant
Ġl oses
Ġgen ius
rib ing
Ġair port
Ġb acks
ĠM ol
op ause
IT Y
Pro v
ĠSt alin
ĠRep orts
Ġfront ier
Ġ186 1
Ġopen ly
ĠAnth ony
G B
ĠP eters
ĠAnd roid
ĠT elesc
ot ics
Ġan not
Ġarch ive
Ġmenstru al
ĠApplic ation
ĠBit coin
op ol
est ial
cc oli
Ġstr ive
ĠStr ong
Ġt ires
ĠE ight
ĠB irds
Ġcur ves
Ġwitness es
oy d
Ġrob otic
Ġpig ment
f amily
ĠB P
Ġdown stream
Ġproport ions
Ġreson ance
F orm
Ġcalcul ator
Ġpul p
Ġoxid ation
---- ----
Ġes oph
ac a
Ġcyl ind
ĠA th
ang les
ĠAct ive
ĠApp lied
Ġrelax ed
ĠCat hedral
Ġpron oun
ĠFest ival
Ġe ll
ĠM aj
ren cies
Ġimport s
Ġmon ks
Ġdown ward
Ġequ als
Ġmand ate
Ġun h
lud ed
Ġide als
Ġrespond s
ĠL aur
ĠAl ice
Ġmot if
ĠHigh way
ĠAnton io
Ġris en
ĠSo on
Ġrein for
E nd
S et
Ġcur ved
Ġser ial
Ġshap ing
A ccess
j u
In stead
Ġgra vel
of ten
Ġth irst
em ption
Ġstud io
Ġaccum ulated
Ġconqu ered
ĠJoh ann
Ġo kay
Ġb ass
ĠN am
Ġval ves
Ġsimilar ity
Ġremov es
last ing
t elling
ĠP overty
Ġattack ing
Ġh atch
Ġst olen
ĠP apers
S te
Ġbl ades
ple ment
Ġher pes
Ġcoord inates
Ġreven ues
ĠColomb ia
ĠRec omm
Ġneuro transmit
ĠRail way
Ġhar bor
I E
ĠSy rian
Ġlifesp an
f ires
Ġg am
iber ia
ĠProg ress
ĠDel aware
Ġpron unciation
ĠHung ary
ris is
ĠCa uses
Ġpersec ution
ch t
ĠP el
Ġpe pper
Ġgrow ers
Ġgot ten
ixt ures
ĠClass room
Ġundert ake
Ġcab in
Ġdesk top
th alm
ĠEvery thing
Ġcompr ising
Ġhem orrh
Ġclar ify
l anguage
orth y
bi ology
Ġimpl ants
Ġrein forced
Ġamph ib
Ġfort une
ĠMont ana
Ġd row
ĠS ic
cess ion
Ġ9 4
ĠDisc overy
ĠV in
Ġob ey
Ġdisc on
Ġer r
Ġsal iva
Ġtend on
à¥ į
ĠThe od
Ġunc ont
AC E
ĠEngine ers
ĠGand hi
> >
Ġt in
Ġcl ip
Ġder ive
Ġ195 1
Gl obal
pl ess
Ġmat ched
Ġfrust ration
ĠArchitect ure
Ġcent r
Ġ195 2
Ġconqu est
Ġdeliber ately
as ers
g ate
Ġcle ver
Ġdescript ive
mod ern
Ġf ont
Ġrot ating
ĠLa ure
ĠEval uation
d in
Ġh ire
ĠS ax
Ġgener ators
ĠAl ban
Ġrisk y
Ġd ur
ut t
alth ough
Ġ8 9
Ġde eds
Ġorgan ised
ĠProv ide
Ġcult urally
Ġfet al
S O
Ġland mark
Ġunf air
Ġu pl
Ġsl ip
Ġgre ens
abit at
Ex ample
ĠWork ers
ĠD ogs
ren heit
Ġmin ers
b earing
Ï Ĥ
ĠT ools
art icle
ath s
Ġc roc
ĠE pid
Ġmon keys
Ġens l
Ġprint s
Ġrab bit
ĠKar l
W atch
d iv
ĠSt op
ĠCh ris
view ed
ĠY ah
Ġhope fully
Ph one
Ġobser ver
ĠW a
Ġspr ink
Ġinev itably
ac ial
Ġrock y
Ġexpend iture
N atural
ĠG H
Ġun e
Ġoff shore
ĠInd ependent
Ġbel ly
Ġw ives
Ġdel ays
Ġpossess ed
ĠJ ay
ĠV ice
bour ne
Ġproceed ings
Ġgif ted
ĠGre ater
g rowing
ĠReg ister
names e
ign ment
Ġdep osition
Ġdeterm in
Ġesc al
s um
ate ur
NA L
Ġpsych ologist
Ġinhib it
b ad
Ġunder going
ĠSen ior
O pen
f requ
Ġimp ose
Ġident ities
ĠGe ological
Ġjournal ists
Ġme ats
Ġactiv ate
Ġdiag rams
Ġdop amine
W ar
Ġb unch
ĠC ov
ĠB ruce
Ġsign ing
m ile
Ġant igen
Ġarch ives
ĠRel igious
Me anwhile
is y
hy l
Ġsubsid ies
Ġcig arettes
Ġp ays
ort ing
Ġsp iders
Ġyear ly
Ġtra ject
Ġass ured
Ġmot ors
g one
an ning
ĠS ent
ĠH erm
ĠO ral
Ġpe aks
Ġinit iate
Ġrecon cil
Ġorient ed
Ad ditionally
Ġtransl ations
ĠH old
Ġun rest
Ġdisp roportion
Ġconver ts
Ġprem ium
f n
ed es
Ġe ch
Ġpros pective
Ġpil ots
c ott
w orms
ĠD anish
Ġav iation
els h
Ġinh abited
Ġcorrespond ence
ĠS anskrit
Ġinterf aces
Ġm ould
ĠN one
Ġcompr ise
Ġw olves
Ġex ile
ĠF alls
Ġbirth s
Ġappe aling
Ġh ook
Ġchlor ide
Ġbron ch
ort ium
Ġse ized
Ġ ).
he ads
Ġun pleasant
Ġindu ction
ĠAt hen
Ġcast ing
Ġw ore
Ġgener ous
Ġlif elong
osa ic
ĠCamp aign
Ġobser vers
Ġact or
Ġphys iology
ĠRepublic ans
Ġconver ting
ĠWorks he
ĠHur ricane
Ġrou ter
F act
d oc
ou ver
Ġtermin ology
Ġad ren
ap olis
Ġun aware
year s
ĠCong o
Ġdefic iencies
ct ory
ad ium
Ġgall ery
Ġaccum ulate
ic idal
ĠS ide
ĠM ike
Ġinteract ing
Ġcand y
Ġcere bral
ĠHam ps
ĠNaz is
Ġgrad ient
Ġc os
ĠW aste
Ġmind fulness
ĠCar ter
ĠT un
Ġout s
G I
ĠE D
Ġmeas les
Ġconnect ivity
Ġincent ive
il k
Ġexp on
coh olic
Ġrenew ed
hist ory
Ġ ðŁ
Ġschool ing
ah n
à ®
Ġa ph
Ġbl u
Ġcreat or
Ġgradu ates
ĠSur gery
Ġmag azines
ĠB iblical
ĠCl aud
Ġtri ple
Ġnews letter
à¤ ¾
ĠLet ter
cl amation
Ġsuper vis
Ġdin osaur
ĠCh and
Ġra mp
ah a
ke e
ĠR ivers
Ġproport ional
la very
Ġstret ched
ĠMot or
he tt
Ġ( $
ĠD A
Ġpl um
Ġbi ography
Ġb ubble
Ġn ails
Ġweak er
ĠHamps hire
Ġ15 00
ĠDemocr ats
Ġf og
ĠE lementary
Ġnot orious
Ġk er
int end
be at
Ġmerch ants
ĠIndividual s
in formation
Ġtravel ling
ĠRef uge
ĠPC R
Ġend urance
Ġ9 1
Ġethnic ity
Ġchlor ine
Ġcab inet
ĠOpp ortun
ac ulture
Ġrecord ings
ĠCle veland
ĠIdent ify
it ous
Ġan th
Ġsub ord
Ġlab s
Ġlog s
ocr ine
Ġprolif eration
i ates
Ġo y
Ġproject ions
ĠJon athan
Ġpro st
ie ve
Ġhost ing
Americ ans
ĠBulgar ian
Prof essor
Ġmurd ered
Ġt el
Ġco ach
Ġpione er
Ġc ognition
ment ioned
Ġstret ches
ad os
Ġhit ting
Ġammon ia
n c
Ġall ocation
Ġpo ets
Ġbes ide
Ġw ard
ort ic
Ġgl oves
Ġcompet ent
L ooking
Ġm our
ĠM ir
ĠE X
ĠR ole
Ġ186 2
ĠDisc uss
add le
Ġmagnific ent
Ġre lying
ĠC elsius
Ġthreat en
Ġmiss ile
Ġperenn ial
Ġc ake
Ġe ighth
ĠPr iv
ant i
Ġinf ilt
ert ility
ĠBra h
ĠCr ime
Ġaggreg ate
Ġrender ing
a ire
c ium
f ig
Ġreg iment
Ġinv aded
Ġwar riors
F N
ĠM end
out heastern
ĠDown load
izz iness
Ġul cer
M ult
S earch
Ġra ins
Ġsol uble
Ġday light
Ġdr astically
Ġcelebr ations
occ up
ĠS ave
ĠTh inking
ĠOr ange
Ġarg uing
ĠAP I
Ġmarg ins
ĠB aker
ud al
ide press
col or
ĠPub lished
Ġresid ual
Ġresemb les
ĠApplic ations
ĠGl ass
Ġpun ct
ac ious
Ġ9 00
Ġneg lig
Ġreact ive
ĠSt ructure
Ġveter inary
ĠCre ation
ï ¼
Ġp ie
Ġn ov
Ġst unning
ish ops
ĠAt mosp
Ġunc overed
Dav id
v oc
Ġpl ains
Ġpe at
Ġeduc ator
Ġclear ing
ĠJohn s
Ġhyd raulic
Ġregen eration
Ch ina
yl um
ĠEd inburgh
Ġintu itive
n om
ĠW ard
ia e
Ġsc roll
Ġperform ances
Ġmanuscript s
B O
Ġl av
ĠLeg al
ĠHor se
Ġtort ure
Ġbi opsy
ĠCanad ians
Ġpurch ases
Ġapprec iated
ĠRog er
Ġf ierce
Ġman ually
ik ipedia
Ġmig rants
Ġlob by
am y
Ġup right
ĠSu ccess
Ġseed lings
Or gan
Ġmonaster y
J es
f s
il is
us p
ĠCom plex
Ġsynt ax
Ġroll ed
Ġf ake
ĠB eck
ĠSol utions
o ise
Ġinteg rating
Ġrab bits
Ġplant ations
ĠÂ §
le an
ĠM t
ĠB ear
199 4
car bon
Ġjump ing
Af ric
Ġimp art
ash i
Ġaffect ion
Ġcompet ence
Ġast on
Ġde ar
ĠL yn
Ġfore most
L ondon
Ġl one
ĠA ch
Ġinst ability
Ġrepl ied
Ġdisp os
Ġgraph s
Ġger ms
bs ite
Ġfin ite
Ġautom ation
Ġmicrow ave
Ġle isure
Ġinfant ry
E s
r ong
Ġex cerpt
ĠSim ply
ĠAre as
Ġd ough
ab a
Ġ193 4
ĠWalk er
I X
T est
ect ar
Ġrec alled
ov ol
ops is
Ġcelebr ating
L ow
w ear
Ġv ague
Ġdec ides
Ġstim ulating
Ġj ail
Ġar ising
Ġph y
Ġexp osures
Ġcham bers
ĠL ud
s er
Ġne at
Ġcompens ate
ra ment
ĠS ugar
own ed
p arents
ĠM iami
lic ted
Ġqual ify
Ġw rist
oc ard
Ġopp onent
Ġsn acks
Ġob l
be it
ĠAss istant
Ġseism ic
ĠSp eech
ĠEc onomy
Ġfract ions
ess ive
ĠSt ruct
Ġfundament ally
ĠTelesc ope
E ffect
Ġd ug
ĠJ ama
ĠT am
Ġmig rate
uke mia
ro f
ĠR oy
ĠSt ore
plic ate
h ill
ĠD ays
Ġar ist
ĠV enezuel
form s
Ġelect oral
ograph ies
Ġtrad ers
M s
ic he
Ġdon ation
ĠOther wise
ero ids
Ġfort un
Ġviv o
h ole
Ġp ir
Ġsh rub
Ġdipl omatic
ĠFah renheit
N C
p resent
ĠB rief
Ġsur plus
eng ue
Ġsed iments
ĠEst ab
Ġenlar ged
ogene ous
Aust ral
In formation
Ġ18 40
Q U
v able
Ġcon gen
ass ed
Ġdom inance
Ġimag ined
ĠRet urn
e le
ul ence
ĠB Y
Ġca ut
St ill
ĠM ig
ĠP ages
Ġde generation
Ġaccess ing
g rowth
Ġwond ered
g ro
br aska
Ġenc rypt
Ġresil ient
ĠBarb ara
f illed
g rass
ĠN T
Ġwork out
Ġback up
Ġang el
Ġdistur bed
ri el
Ġyoung est
Ġcou p
Ġ186 5
ĠLab our
ĠDet roit
ĠDub lin
ĠD in
Ġback ward
Ġcor rid
Ġpresc ribe
ibl ings
Ġrod ents
Ġm esh
ĠG ran
Ġey el
Ġdoub led
Ġdro pping
Ġdisadvant age
Ġcatast rophic
Ġbutt ons
a an
ĠR uth
Ġins omnia
Ġdon ors
av ailable
Ġprov es
rib es
Ġequ ator
Ġmult itude
Ġreflect ive
Ġto e
ul u
qu in
iz ard
Ġtim eline
ed ication
ar ious
ad ata
est y
ĠH R
Ġint imate
i ably
With in
Stud ies
Ġcig arette
M art
Ġg on
Ġult raviolet
Ġautom obile
Ġconv inc
Ġgrand father
top l
Ġvic inity
b as
om orph
Ġoutl ook
Ġdecor ative
Ġex empt
Ġcompan ions
ĠLib erty
m g
ĠUg anda
hel p
AL L
Ġremind s
Ġjewel ry
ĠNorweg ian
Ġin qu
ol ation
ĠD ent
ĠIntern al
ĠL eft
Ġdiscover ing
n ish
Ġac upuncture
Ġear ning
Ġportray ed
F our
i ots
Ġsket ch
en er
Ġg olf
ant ing
ag ic
ĠK ra
Ġclin ics
Ġenh ances
and o
Ġun equ
Ġrec k
ĠPh araoh
Ġsin us
utri ents
M aking
o zo
ing le
ĠF un
Ġele ven
Ġterror ist
Further more
Â »
Ġen erget
Ġkind ness
Ġdom inate
ot or
Ġmin us
rote in
Ġpurs ued
ur ia
ĠP rad
ble m
Ġair way
Ġwar nings
ĠMonitor ing
Ġcont raction
Ġfun eral
ave ment
Ġloyal ty
P H
V al
ĠJ am
Ġcommun ist
ĠChar ter
osc opy
ĠSmith sonian
ĠIncre ased
Ġt iles
ĠSouth west
Ġad en
Ġcont ing
Ġwond ers
ĠPublic ations
Ġspin ning
Ġbenef ic
Ġmal icious
Ġsupplement ation
Christ ian
Ġyog urt
Ġs ized
ĠNav al
ĠRec overy
Ġprepar ations
Ġp ars
ĠM aur
ĠIn novation
Ġneed les
Ġfa una
ĠSpec ifically
Ġdial og
Ġremind ed
W ash
y on
D D
ĠB iod
ogen ous
Ġhorm onal
r ise
r atory
ĠJ enn
ĠSc reen
Ġprofess ors
Ġwilling ness
Ġm ph
se tt
Ġann oy
Ġport folio
bl ood
ĠB uck
Ġmind set
ĠIsrael ites
Ġmag ical
ĠElect ronic
ĠEth ics
K E
Ġcertain ty
Ġcit rus
Ġones elf
Ad ditional
New s
in ators
cl ock
ĠPC B
is en
Ġref eren
ĠSum mary
ĠI oT
ER T
ĠVers ion
Ġpresum ably
g ia
ig raph
ĠM ade
ew orks
ĠTe ach
lo or
Ġdro ple
Ġprivile ges
ĠR ace
Ġinc omes
Ġout let
Ġswit ches
V A
Cl imate
ĠAb use
Ġcontem pl
ĠBern ard
st age
Ġse aw
B R
Ġf ame
Ġd ressed
ol uble
ĠR ud
ĠG ent
Ġgen ital
ĠAfric ans
ĠGen etics
ĠS N
atic an
ĠComp et
p ace
Ġst igma
Ġde le
Ġhe el
Ġv ibration
cy cle
Ġso f
Ġform ulas
Ġdemonstr ations
part y
R ad
ĠD R
ĠO t
Ġsc ler
Ġeight eenth
ĠA wareness
Ġst ool
ĠG E
ount ain
Ġauthent ication
ĠM obile
elt ic
Ġske letal
Ġcrimin als
ĠP ick
ĠWar ren
rim p
Ġcapt uring
Ġrandom ized
ĠImport ant
l ad
Ġl ubric
ig hed
com b
Ġbal ancing
en ium
ĠN ar
ag os
ÃŃ a
ĠVe get
ĠGh ana
Ġpred isp
ĠMar ie
Ġfrag ment
ĠViet namese
Ġpractition er
Ġref ine
Ġgu ards
Ġcit ations
Ġgeomet ric
Ġseaf ood
br ush
Ġp s
Ġen amel
ĠV ari
Ġtransl ates
Ġparagraph s
ĠPediatric s
Ġbip olar
T ypes
ĠV A
âĢ¦ âĢĿ
Ġtens ions
l ived
rop he
Ġmin isters
ĠCon cer
Ġdig ging
Ġlif ted
Ġdiscont in
Ã ´
ith m
Ġall ocated
Ġref ere
Ġce ase
fram e
m aster
ĠSt ay
co al
Ð º
ĠC ognitive
Ġsupp ression
c f
ĠGen etic
A ng
Ġm erc
ess ed
Ġgen eal
Ġref lux
Ġmet allic
Ġang els
ĠFl ash
Ġmicrosc opy
al is
Ġb id
st op
ĠC el
Ġsp are
so ver
Ġunf amiliar
Ġunp redict
anche ster
Ġw rap
Ġ19 21
Ġisol ate
Ġsel dom
he ster
it ations
Ġhum or
ĠPro tein
hy thm
W ind
Ġs aint
Ġs ixty
ĠC ool
Ġconvent ions
Ġsh out
Ġproclaim ed
ĠF ab
l iness
ĠM att
ĠBe at
rim inal
ĠDO I
Ġinstruct ed
Ġband width
Ġcondem ned
o ar
Ġcon e
Ġover th
Ġwa ist
199 3
Ġcorpor ation
ĠRevolution ary
e ger
ĠSt yle
Ġel ong
Ġin acc
Ġactiv ist
Ġgr inding
Ġlove ly
Ġdepart ure
Ġshr ink
N ET
Ġs ores
Ġ3 60
ã Ĥ
Ġre velation
Ġcollabor ate
Pres ident
ortun ate
Ġpast ure
Ġreported ly
Ġnation ally
ĠIS O
Ġsocio economic
Ġic onic
c ode
gen e
imicro bial
t ail
Ġaer os
ĠBab y
ar ound
Ġvis ibility
ĠEn s
ÃŃ s
ĠIran ian
ĠCell s
ĠOper ation
ĠE gg
Ġcons cience
Ġrep airs
pr ints
Ġspecific ation
ott om
ĠVar ious
st art
Ġn ons
ffect ed
ĠGen eva
× ķ
ir i
Ġscr ut
ĠD E
ĠQu arter
Ġmultipl ication
Ġs ulph
ap le
Ġimm ort
Ġemb ark
Ġlat itude
ĠSur v
Ġinhib itors
Ġd ors
ĠP erm
Ġanal ogy
St and
ĠDis ney
Ġorb its
Ġ1 15
Ġdesign ation
Ġmer it
Ġrept iles
Ġhect ares
D em
Ġtyp ing
ĠRe ich
na issance
Pro t
ĠColl ins
onge vity
Ġin aug
Ġn u
ĠS it
ĠE bola
ace ae
Ġac et
Ġquestion ed
Ġstat ues
ĠContin ue
Ġch i
Ġcl osure
Ġpur ity
Ġham mer
rop s
Ġgu y
Ġcompl aint
w ave
É Ļ
Ġwh oles
ill ation
ĠH ob
ential s
Ġbas al
Ġopt imum
P I
om at
Ġdisc oura
an us
ail ure
ĠAra bs
Ġd ilem
ĠC ow
Ġvine gar
F rench
Ġ19 22
ĠV II
Ġsun screen
Ġharm less
Ġjud ged
Ġdisturb ances
Ġc ad
Ġsy rup
ĠCl ay
Ġaccount able
Ġinject ions
Ġcav alry
Ġcollaps ed
d ist
w ig
Ġc ents
ĠC ou
Ġnot eb
ĠMe eting
Ġincl ined
ĠLead ership
B i
ĠN early
ĠAn throp
Ġcaus al
Ġsupposed ly
Ġsearc hes
Ġdatas et
D irect
ĠC auc
ĠF el
ĠK le
we b
umb ing
ĠAc id
ĠRo om
ĠBre ak
ĠColl abor
Ġpubl isher
R ich
en z
ĠA part
um ption
Ġgu iding
Ġsw ollen
omet ers
Ġcritic ized
Ġflo at
Ġeconom ists
Ġmar vel
Ġlim itation
Ġoffer ings
Ġencl osed
F ollow
Ġ á
ĠW H
ĠE sc
ens on
G H
Ġl ent
ract ed
Ġstat istically
ĠIm agine
t ec
ph thalm
Ġeng ra
ours es
Ġrat ings
Ġlux ury
ou x
ĠF ew
ĠN othing
ry s
yr us
Ġcoc oa
Ġcrypt ocur
Ġsau ce
Ġl uc
ĠL ack
Ġrest oring
Ġvol atile
IV E
ĠPhot os
ĠA pr
ĠM L
Ġinstruct ors
ĠDiv ine
ĠJosh ua
he ter
ĠH end
Ġneed ing
vent h
Ġc uis
ĠB iol
Ġapp rent
anc ouver
Ġgradu ation
bet ween
ĠC atherine
ĠJ our
ll a
As k
ĠReg iment
Ġdimin ished
Ġrepet ition
ĠQueens land
Ġpot tery
Ġcolon ists
Ġjournal ist
ĠW oman
ĠPan ama
Ġresur rection
ĠR w
Ġsim plicity
Ġfest ivals
Ġcompos er
Ġl ap
Ġemail s
Ġnarr atives
Ġsanct uary
Â ²
Ġback yard
Ġtooth p
Ġannounce ment
Ġfluctu ations
S em
ĠD iam
Ġline age
Ġgradu ated
Ġuns afe
Ġpassion ate
develop ed
Ġmul ch
ur rence
ĠA x
hat tan
ol o
ĠL inks
Ġmet ast
ĠCo oper
Ġinsp iring
aur us
Ġrevers ed
Ġm ars
Ġl id
oc amp
Ġ190 5
ĠCost a
Ġupt ake
es ters
Ġd ome
Ġh ast
Ġcomp uls
Ġtr an
Ġinjust ice
Ġm ites
Ġthere after
Ġsuff ers
Ġcompet itors
Ġlip id
ĠS AT
ĠCl ar
âĢ¦ âĢ¦
Ġsal ts
ĠCorn ell
Ġconf erences
Ġmal ware
on el
or able
Ġbe an
ĠAd ult
Ġbi ologists
Ġtal ents
ĠH imal
Ġsp ike
du p
Ġimp ressed
ĠEm ploy
Ġeth n
Ġembry onic
Ġcous in
K S
f ields
le ft
if est
urn al
Ġve ctors
ĠMont real
Ġcoron avirus
Ġhe ights
iv an
Ġphot osynthesis
ĠFl ag
ĠSen ator
Ġprejud ice
ĠBeng al
m ass
ĠW atson
Ġval leys
Ġben ign
Ġcontribut ors
ogen etic
Ġvibr ant
e ffic
Ġcon gregation
Ġcontin ents
Ġcr ater
nam on
Ġcoh ort
e a
o op
ĠB E
ĠN ik
Sm ith
ĠVerm ont
Ġb amboo
Ġmass age
eal ous
Ġconstruct ing
Ġsem ester
Ġnurs ery
O ld
ol in
Ġbelie vers
ĠBul let
pher d
J ames
g as
l ined
Ġt yr
Ġt ricks
Ġro ver
ĠThanks giving
Ġarsen ic
Ġhum ble
resp ons
Ġfold er
Ġvag inal
ĠHait i
k ill
Ġs iblings
Ġex ceeds
ĠN H
Ġplant ation
N G
Ġt icks
Ġblog s
Ġske leton
Ġsie ge
1 12
ĠI gn
ĠF ast
Ġsp aw
ah l
Ġfav ored
Ġinvent or
IL L
Ġexplo ited
govern mental
Ġforb idden
Ġn ectar
um atic
ĠF light
Ġad vers
ĠV iolence
Ġsand y
Ġlandf ill
Ġd ull
ĠM aterial
A nal
L ar
Ġto ss
Ġl ava
Ġcor ps
Ġveget arian
i oma
p ool
il iary
ĠF ra
ap hyl
Ġcalcul ating
ĠAS D
Ġcommod ities
à ¸
Ġm aker
ĠMor oc
d eterm
Ġb ricks
osp ace
Ġ193 2
Ġsexual ity
Ġsusp ension
Ġven om
Ġw iring
ĠI Q
ĠR ound
Ġj elly
Ġpo orer
Ġsusp ic
Ġcontag ious
in ians
re ts
Ġp ains
ĠR ice
ĠR ules
Ġsh ipped
ĠO k
ee k
ai ro
ĠInst ruction
ri ad
Ġunder way
Ġansw ering
Ġpenet rate
associ ated
Ġub iqu
D E
S al
ĠM orm
ĠK ath
ĠK enn
Ġlit eral
Ġdig its
Ġreact ors
Ġpump ing
Ġcaps ule
x ia
Ġsuccess es
Ġsw ift
Ġeditor ial
ĠMur ray
s olving
ly cer
ĠT anz
Ġdep icts
Ġorb ital
Ġintrig uing
P age
k it
Ġbl oss
ĠSc and
Ġcapt ain
id en
ĠC ant
ĠC ole
Ġle ver
Ġlength y
Ġpanc reas
P ort
Ġmar itime
Ġge ology
Ġille g
ĠConfed er
op ia
ĠCont ents
Mod ern
F O
U ntil
ĠK am
Ġproject ion
fact ory
Ġexpect ation
can cer
Ġstick y
Ġrhet oric
d ale
le en
Ġsur pass
Ġpsych ologists
Ġregul ators
Ġser otonin
Ġdev iation
Ġsuccess ive
ĠMay a
EC D
Ġinn ate
w er
Ġinc ap
ograph s
Ġwavelength s
ri k
Ġgo ats
Ġtherap ists
Ġtelesc opes
Ġinh al
c ounter
Ð »
Ġk its
ĠSt re
Ġdisc ern
ĠGo als
Ġprint able
Ġoverwhel med
T ry
m ain
il ated
Ġver ification
ns ic
Ġacqu iring
ĠCreat or
Ġwra pped
Des ign
ĠAdm iral
Å ¡
ill o
Ġtext ile
Ġrout ines
Int roduction
Ġsecre ts
Ġgrate ful
n uts
ï ¬
ĠC emetery
Ġav en
Ġnow here
Ġbus es
Ġcort isol
sell ing
l ook
ass ing
Ġsol ids
Ġant iv
Ġbub bles
ĠM B
ĠSp rings
bor ough
Ġdiam onds
Ġpla us
Ġank le
s ix
Ġp ills
Ġ10 5
ank ing
ipp er
Ġdecl ines
Ġvig orous
esthet ics
Ġst up
ĠC I
Ġsuper f
Ġl amps
ill in
Ġtreat ies
Ġprof itable
ĠEx change
Ġscient ifically
ĠRuss ians
Ġencoun ters
Ġfet us
p athy
ĠE uro
ĠPro ced
ĠSh an
ĠUnder stand
Ġcere al
Ġstere otypes
Ġpanc reat
Ġdecent ral
lip se
i our
j ar
ĠL em
Ġeven ly
ĠNe braska
Ġtransf ers
ä ¸
in as
Ġo vere
Ġst ance
Ġst ub
Ġcharacter ize
Ġinstit ute
Ġclim atic
ĠRepresent atives
< /
M C
s ch
ĠP S
Ġcountry side
Ġin effective
Ġg ri
ore ct
Ġpolic ym
ĠDem ocracy
ĠFact ors
Ġpod cast
Ġenlar ge
Ġspont aneous
O x
l isted
Ġcell ul
Id ent
ovol ta
Ġt ours
he ll
ult an
Ġdi ary
en ers
Ġp agan
ĠH us
ĠAd apt
ĠExper ience
Rec ent
Ġanch or
Ġyour s
gg ing
Ġperiod ically
Ġconv iction
n els
st ance
af ety
Ġ186 4
Ġoptim ize
Ġiod ine
M ich
d el
ĠB rian
Ġuse less
Ġsk ip
Ġ190 6
Ġ190 8
Ġhat red
ĠBrook lyn
Ġdisse min
nd s
Ġn ull
Ġ18 30
Ġmeant ime
Ġsen iors
e ks
os ke
Ġpred ator
Ġcommit ments
ĠPark er
Ġgrand mother
Ġamb ient
at um
ĠK an
Ġvers atile
Ġcorrect ed
Ġrecy cle
ĠSal mon
Ġsof ten
l ishes
Ġst ip
ĠAn swer
Ġtemper ate
Ġquestion ing
Ġlib eration
Ġreward ing
s ac
ra its
Ġra v
Ġinver te
Ġcan vas
ĠG ray
Ġrec ession
Ġpoison ous
Ġthir teen
G old
ĠS U
ĠP and
Ġcra zy
u art
Ġag rees
Ġpra irie
Ġgrat itude
er ic
iv ores
ĠSt ories
Ġwar n
Ġwarm th
Ġ186 3
Ġp ic
te chn
ĠAr g
Ġrespons ive
Ġw ished
Ġin security
ell ite
Ġlear nt
ĠShe et
âĢ¦ ]
Ġunf ortunate
c ra
ĠSte in
ĠBre ast
Ġdos age
l ov
ĠS ure
ĠK el
ĠPar ad
ĠPress ure
Ġregul ates
Ġhur ricanes
Ġrid ic
produ ct
UC N
Current ly
D ist
N umber
in ctions
at able
Ġre per
Ġg rie
ĠC over
ĠH ond
Ġwor s
ĠâĨ Ĵ
or f
Ġimp ulse
com ed
Ġcr ises
Ġlib ert
Ġdistur bing
Ġadministr ator
Ġdismiss ed
C ount
in av
ĠP ole
ob a
Ġgu ys
Ġremember ing
ĠRab bi
Ġr idge
Ġfl ip
ĠApp roach
ĠPract ices
A ir
Ġincorpor ates
Ġphosph ate
Ġcer amic
ab us
ĠR O
Ġenerg ies
Ġquestionna ire
ed ar
oc ular
ĠAr c
Ġshort ages
IC E
Ġ193 1
odynam ic
f eld
ĠS ources
rom b
uss ia
Ġsun ny
Ġs aints
ĠCh amp
Ġnow adays
ĠWh atever
Ġill usion
Ġund es
ĠInf antry
Ġelectro des
ococc us
Brit ish
s a
ĠT ab
Ġcan opy
ric hed
Ġbi ochemical
Ġce ased
cont in
Ġroof s
Ġthread s
Ġdeterior ation
w ent
Ġp a
ĠL ect
ĠV III
Ġ190 7
Ġhighlight ing
Ġpock ets
Ġintoler ance
Ġp engu
Ġinc oming
Ġacc red
Ġadd ict
ĠNe ither
clus ive
Ġprospect s
Ġl ions
rit ers
Ġadd itives
Ġshe er
Ġcr ushed
ĠAut om
Ã£ o
Ġs aves
Ġab rupt
Ġjust ification
Ġdefic its
ĠT ang
Ġg aming
Ġloc als
ĠFlore nce
Jes us
X X
ĠM anchester
ĠH ep
Ġle thal
Ġj unction
Ġexam inations
Ġfun ny
Ġquick er
b ishop
Ġp ork
Ġdiff ering
Ġcons on
Ġbar rel
Ġpersonal ized
Ġsacrific es
Ġun ified
ĠY ang
ung le
Ġcapac ities
Ġbright ness
Ġtrick y
Ġcel estial
ĠH ousing
hib ition
Ġconsult ant
ĠScient ist
Ġbath room
il dup
ad ron
Ġsu ng
Ġman ages
Ġout reach
ruct ose
Ġair borne
ĠEx cell
Ġswe pt
Ġacad emics
Over all
htt ps
V itamin
Ġdr ift
Ġsent iment
Inc re
am us
Ġle ap
Ġgl aucoma
ploy ed
Ġcul min
Ġd izziness
Ġcirc ulating
ĠAb u
i Ã³n
Ġtur key
ustain ability
Ġathlet ic
ĠNO AA
Ġsmok ers
ĠC ities
ĠP ant
our ge
pr ise
Ġab used
Ġover load
ĠV atican
Ġprov ing
Ġend orse
Ġbr ig
ĠOrig in
Ġmuc us
b ach
Ġg ad
ĠN umbers
ĠY oga
Ġsocial ist
ox y
ĠBl oom
Ġund erest
ĠOlymp ics
Ġentreprene ur
B ra
l ated
ac o
Ġec lipse
Ġweigh ing
N T
d ish
Ġins isted
con duct
Ġadjust ing
roid ism
Ġembra ced
otyp ing
Ġbom bs
) -
an throp
ĠT amil
Ġhier arch
Ġgamb ling
H y
a a
Ġd iving
Ġv oid
cept ive
the m
Ġdesc ended
ĠP in
Ġsu its
ĠR osen
Ġgra pe
Ġcontin uity
199 1
ĠW elsh
Ġsh oe
Ġblood y
Ġfin est
Ġn ets
ript ions
Ġstimul ates
Ġtsun ami
Y ear
b ase
Ġlabel ing
1 18
Ġg rip
th ms
ab e
D O
on ium
With out
Ġchap el
Ġoxid ative
ve t
Ġn aming
Ġrel iance
oun cing
Ġtail ored
CD C
sm all
v ings
ĠR AM
eng es
ĠHol land
ĠPsych ological
P aul
z ema
Ġt idal
ĠA G
ject ion
Th ink
Ġfol lic
Ġcertific ates
Ġren amed
d oms
n ell
Through out
9 00
Ġl ime
ĠP ul
ĠN ut
Ġafter math
arr ison
qu er
Ġsp ores
Ġlight ly
ĠCreat ing
ĠPit ts
Ġcater pill
O ff
Ġp ulses
ĠCh art
ĠGra ham
ĠPop ular
Ġnic otine
Ġail ments
" ),
Ġco herent
Ġeduc ating
M uch
ĠC her
Ġrel ay
Ġcar rots
sc he
Ġwet land
e h
ĠT ol
um erous
and y
ĠR aw
Ġbar rels
Ġenjoy able
Ġconv icted
W HO
Ġg amma
Ġform ulated
Ġcrow ded
ĠPear l
s qu
Ġt ones
est on
sh ine
Ġmight y
Ġcat ar
ĠNo ah
Ġaccident ally
ĠSign s
Ø ¯
Ġthe ological
ĠA F
Ġan nex
ĠH ubble
ĠG R
Ġen jo
ĠK az
Ġreal ities
aff e
Ġforg iveness
Ġmart ial
ĠH arm
ĠK rish
Ġcar bs
Ġswit ched
Ġconsec utive
RN As
Ĺ ı
Ġreview ing
Ġcross es
M I
p rop
ĠM ut
Ġne on
ec d
Ġfil t
Med ical
def ined
Ġseiz ure
R ober
ĠL ock
ĠAd ults
Ġremark ably
Ġshut tle
Ġan onymous
ies el
Ġspe eches
Ġban ana
Ġsmart phones
ĠTop ics
ĠAL L
Ġinherent ly
Ġnick el
Ġbe ads
ĠC hes
ĠM ine
ĠBar n
ĠD ow
ĠF ern
Ġoutput s
estab lished
Ġpyram id
L ead
N R
e ast
Ġg em
ĠD I
Ġant idepress
Ġprop osition
ĠGen e
Ġa wards
Ġb other
Ġ19 28
ows ki
Ġintric ate
Ġfor age
ĠB ir
Ġha w
ĠSt ev
Ġwhere in
acter ia
Ġbre ach
ĠMan hattan
ĠExp ress
ĠGreg ory
ĠW et
Ġdev ised
Ġvir gin
ĠInterest ingly
ĠTibet an
et us
Ġrect angular
Ġdolph ins
oar thritis
ĠA id
Ġbi ologist
ĠX ML
Ġrein forcement
Ġborrow ed
Ġdeliber ate
g om
l ooking
Ġc ured
Ġsp ur
ĠTh reat
eg al
ĠCy ber
S ah
p end
Ġcolle ague
Ġprogress es
r ines
Ġo lig
ĠV ancouver
Ġfram eworks
ĠWell s
in is
Ġbu ildup
Ġform ations
Ġbr ass
Ġnucle i
Ġimpl ied
Ġastronom ical
frequ ency
ĠM amm
Ġen vision
orn s
Ġmal nutrition
Ġfulf illed
Ġsubmar ine
Ġl amb
ch lor
ĠA ld
Ġdownt own
T em
o ft
Ġd rones
Ġnot ions
Ġgen ocide
Ġdec isive
Ġinterp ersonal
More over
op ot
Ġsp ices
Ġbu zz
Ġdev otion
Ġbar ley
Ex amples
she et
Ġcontrad ict
Ġbe verage
Ġprocess ors
Ġtop ical
ĠGe ography
Ġcapital ist
ĠAtl as
ĠT rees
ĠBut ter
de hy
Ġdirect ors
Ġvers a
ĠCam er
Ġle verage
Ġint end
Ġz ebra
Ġap artment
- ,
1 000
at ar
Le ave
Ġbe ats
im on
ĠS H
qu et
ars on
Ġinterview ed
Ġbrut al
Ġd edication
Ġsub mer
Ġpack ets
Ġspin ach
Ġrecruit ment
B ig
Ġt astes
at itis
Ġc ache
ĠK ant
Ġprotect ions
ĠCo ff
Ġste al
Ġrepe ating
ĠParticip ants
S V
Ġar ter
Ġhome owners
Ġresearc hed
bo at
Ġbond ing
cler osis
d et
Ġo wing
ĠC osm
ĠD VD
Ġ2 20
ĠN it
Ġancest ry
ĠN ick
Ġtw ins
anc ers
OR T
ĠAssoci ated
l ia
m ium
Ġst air
Ġstrengthen ed
Ġbuck et
ĠLeban on
Ġbe ams
Ġcomp ares
aj a
199 2
ĠEffect ive
Ġfrust rated
ĠCauc as
ip al
Ġthink ers
Ġsw ing
ĠRem ove
Ġintest ines
produ cts
ĠNG Os
u cc
Ġe lic
Ġsystem atically
aw i
c lick
f iction
ĠInter ior
Ġconfirm ation
ĠCoast al
Ġbeet le
e very
Ġsp ear
ace a
Ġpo orest
Ġlong itudinal
Ġmet ropolitan
Ġmir rors
L ab
Ġve gg
Ġlegit im
neg ie
P al
Ġd uck
ĠP regn
Ġwas ted
ri ver
Ġed s
Ġtrad em
P ress
S an
se ver
ĠI F
pl aces
ĠJ ere
Ġad here
Ġam ple
ĠPro s
Ġsl aughter
Ġmot ions
Ġhot els
cont ent
essor i
Ġp ins
ic ated
Ġgroup ed
ĠSy nt
ĠAT P
Ġrobot ics
Ġmira cle
a que
al ph
ĠC F
au er
Ġhel met
ĠPl ains
ĠOper ations
Def inition
ĠS old
ĠH app
Ġwater ways
arc ity
ĠChild hood
Ġdetect ors
E ss
m em
t able
Ġl od
Ġsh ades
sh ire
Ġcop ied
ĠPat ri
Get ting
Ġatt ained
ĠCons umer
U ST
Ġd read
il ia
ĠT ru
Ġsh ake
Ġad s
Ġbur nt
On line
Ġpredict able
Ġdepr ived
n an
Ġf ictional
Ġcharacter ization
rim ination
Ġfinanc ially
Ġdesper ate
S H
Ã ł
Ġan omal
ĠE agle
ĠK elly
ĠV it
ĠProject s
with out
ĠS R
ab i
Ġbro ccoli
pe ace
Ġnarr ator
plo ys
orect al
Ġb ored
Ġm u
Ġh alt
Ġwor sh
Ġopt ic
Ġwel comed
ĠFam ilies
Ġencompass es
Â ´
Ġb aked
our t
Ġind ef
Ġdisc arded
ah u
ĠRec ently
Ġmorph ology
ĠLie utenant
Ġstrugg led
Ġintention ally
ĠA A
Ġcolon ization
Ġcapt ive
Ġpenet ration
B E
l ib
r ators
Ġdel ivers
Ġview er
Ġcivil izations
Ġtransform ing
ĠHarr ison
c ore
ĠC risis
ĠL ore
Ġrese t
ĠPl uto
Ġbud s
Spec ial
ĠCham ber
ĠF REE
ĠArt ificial
Ġjud gments
Ġfell ows
Ġhypothes es
ĠB ranch
Ġsc aff
Ġprev ailing
Ġpean ut
Ġoun ces
Ġsemiconduct or
Ġhered itary
ĠW aters
Ġk iss
ĠDe al
oid al
het ical
Ġcatch ing
Ë Ī
Ġimp ed
ub a
ĠDr ive
Ġeld ers
Ġcongen ital
Ġw icked
ĠP D
ip es
arm ed
Ġclin icians
Ġrank ing
ĠOl iver
u ador
Ġs ailed
ĠD est
ĠRe h
Ġsched ules
M em
ĠP E
ans om
Ġpredict ive
Ġ \
Ġe ats
ĠL ibr
Ġdiff usion
Ġph il
Ġcr ashes
ane ously
Ġdisplay ing
ĠCharl otte
Ġeleg ant
Ġt enth
ver b
ĠN iger
Ġem ig
Ġnum b
Ġfin ishing
Ġtruth s
Sh ort
Ġconsult ing
ro cy
ig g
ĠD iversity
ĠF resh
ĠL ot
Ġro ds
Ġco efficient
iqu id
Ġden ial
ĠClass ical
ĠSte ven
Ġp aired
Ġlot tery
Ġmig raine
Ġmotiv ate
k ets
Ġwh olly
Ġde form
Ġout lets
Ġleg ends
Ġpred icting
Ġrain forest
f i
us able
ĠH at
ne red
Ġcar ot
Ġrot ate
Ġaw esome
Ġl ongevity
Ġev id
Ġben z
sc ribe
ĠTr inity
Ġimag in
Ġprison er
âĢł âĢł
l as
o ffic
ab olic
Ġsc ored
Ġhomes chool
Ġ190 1
Ġfort ified
Ġsuscept ibility
Ġcul p
Ġwas tes
Ġle ukemia
Ġcry ing
ĠInvest ig
ĠHum ans
ĠIde as
ĠTe a
Ġsal ad
bl ock
Ġdepr ivation
T ur
ĠP red
ĠR ic
ĠR ural
Ġle aks
Ġaccommod ation
Ġchair man
Ġmant le
C y
Û Į
ow l
Ġsoc cer
ĠSu ff
Ġhair s
Ġbank rupt
osc ope
ĠS V
ĠG N
Ġres ide
Ġdisc rete
Ġcat hedral
Ġmilit ia
Ġalk aline
Ġbor ne
R ob
b rown
am as
Ġbra ke
Ġhom eland
Ġvac ation
I ts
t ings
Ġit ching
um ed
ĠIn side
Ġj unk
rop ract
Ġpast a
Ġred ist
Ġaw aken
Ġprem ises
Ġconstell ation
Ġcommun al
Ġinterpre ting
am orph
ĠP ray
ĠD all
Ġte asp
oll ar
ĠUlt imately
Ġ Ø§ÙĦ
Ġt ribute
ic ient
ĠS ed
el ed
od ic
Ġex ting
ĠSt reng
Ġup wards
Ġdef ending
Ġmis leading
id i
Ġ1 12
ĠW es
Ġmod elling
amm ed
ĠRedu ce
her ical
ĠB ened
de v
Ġwin ters
Ġvolcan oes
. âĢĶ
ĠT ests
ĠM E
ĠL ooking
âĢĿ ),
Ġsim ulate
Ġsom etime
oph ila
rehens ive
Ġenerget ic
ach t
Ġgen omes
Ġru in
Ġparliament ary
o i
Ã Ĥ
Ġl ined
ĠG A
Ġgl ance
Ġtax ation
Ġdispers ed
ĠNAT O
R ev
Ġj azz
ĠV a
M edic
Ġe agle
Ġrec ount
az ing
Ġ190 9
ĠCitiz ens
ithm etic
D ifferent
Ġlight weight
Ġ17 00
Ġestab lishes
Ġinfluen cing
Ġsimpl ified
Ed it
M ac
Ġre ception
os in
su per
Ġarchae ologists
Ġtang ible
Ġpix el
D et
R ight
b uilt
m und
ĠM om
Ġ19 23
ok en
Ġind ul
Ġbar g
Ġreb uilt
Ġreluct ant
Ġconvinc ing
r ational
ĠH D
Ġins cription
Ã© e
Ġcapt ivity
Ġenjoy ment
fall s
ĠMel bourne
ĠGuard ian
h ou
Ġheav ens
col ored
Ġaer obic
Ġp oured
Ġf aint
ster dam
Ġsusp icious
Ġhun ter
produ cing
ĠC eltic
ophy ll
Ġ189 8
ĠMess iah
ir uses
Ġend uring
Ġemploy ing
ĠIsa iah
Ġopio id
b ee
Ġex h
Ġspecial ty
Ġlack ed
Ġexcell ence
Sm all
gom ery
T ext
in h
Ġfl ock
Ġtravel led
Ġbacter ium
ĠColon ial
Ġcongest ion
C all
i per
s ervice
Ġfam ine
Ġmar riages
Ġvisual ize
Ġbattle field
Ġshel ters
à ¦
ĠM C
ĠE ra
ĠR ate
ould er
ĠY OU
Ġpath ology
Ġbase ment
Sh are
ĠRich mond
Ġextract s
ĠC rus
ĠD NS
Ġsh rimp
Ġrep orter
Ġsub mission
Ġspl end
Ġforecast s
Ġmush rooms
Ġen forced
Ġun limited
You ng
ĠState ment
Ġforest ry
Ġaw a
Ġanalys ed
Ġ å
Ġc iting
Ġpro se
ĠG I
Ġnit rate
Ġrecip roc
En vironmental
Ġreplic ate
U K
c lic
in qu
Ġf ighter
ĠAb stract
ĠReg ist
Ġfurn ace
Ġresid ues
Ġvow el
Ġb oss
ĠH earing
ĠJud ah
ĠKnow ing
D an
Ġpro ceeds
ab ad
ant o
Ġexp osing
iss a
Ġnational ism
ĠUs er
ĠFil m
fu els
1 30
? âĢĻ
Ġt ennis
id ate
Ġal oud
ĠP ine
Ġhe ir
ĠE asy
Ġsh ores
Ġwor sen
Ġcontribut or
Ġsc aling
ĠSp eed
Ġsym pathetic
Ġtick et
ĠHot el
Ã Ĺ
Ġc ores
Ġra y
Ġcollect or
Ġlegend ary
Ġdistribut ions
ĠArm strong
Ġkern el
B esides
Ø ª
it ating
ĠS ize
Ġst aple
ĠH alf
Ġthere of
ĠSh i
ĠGen eration
Ġstri pes
Ġcomment ed
Ġmelan oma
Y S
Ġb ust
Ġst arch
ĠIn sp
Ġmed i
Ġautom otive
Ġobsc ure
k ers
ot rop
uss ions
Ġel bow
Ġapprox imate
Ġmath s
Ġstiff ness
ĠB us
Ġauthor itative
ĠMed ieval
Ġintrodu ctory
Ġcontract ed
Ġadolesc ence
m orph
n amed
ge on
ĠRe ef
Ġunpredict able
iv itis
Ġarr ives
fund ed
og an
Ġ19 25
Ġgen omic
ĠRe ason
Ġbur d
Ġphysic ist
Ġcere als
ight y
Ġstat ute
ĠDevelop ing
Ġmyster ies
Ġm oss
ut or
les i
Ġpric ing
bel ie
Ġswallow ing
l iving
Ġt ribut
Ġ1 18
ĠD ragon
ĠR ico
ĠL DL
ell i
ĠJ ur
Ġra cing
Ġam ateur
Ġchar coal
Ġevent ual
Ġrespect s
ĠAugust ine
Ġbl amed
10 4
Ġexc use
Ġunique ly
ĠPsych iatry
Ġrhy thms
Ġscal p
Ġtodd ler
Ret urn
L P
Ġab norm
ass ador
Ġun ve
Ġdes erves
Ġend ure
ĠChap el
im et
cent ered
Ġlocal ized
Ġtax p
in se
Ġm ills
Ġl ump
im mer
ĠI CT
Ġover ly
ĠArch ive
Ġobst acle
r ide
Ġtun nels
Ġpill ars
Ġsle e
Ġmitochond rial
m ad
Ġc ott
Ġl ice
Ġsp ends
Ġrec urrent
iss ue
Ġposition ing
ĠAssoci ate
Ġelectro de
Ġpix els
ĠBullet in
Ġ1 17
Ġmon oxide
angu ages
Ind ia
Ġexhaust ed
Ġpuzz les
ĠTurn er
ĠLith uan
ĠW ays
ĠG ill
own er
ĠDef inition
Ġom n
Ġf res
ar cer
ron ics
ĠZ o
ĠMay o
Ġexpress es
Ġmount ing
Ġprophe ts
S k
c ro
ĠW ide
ri et
Ġground ed
Ġemer gencies
t aking
ĠM ak
Ġcar pet
ĠOver view
ĠEv ans
ĠÂ µ
Ġhob by
T otal
l ate
op athic
Ġnum bered
Ġfer mentation
ĠStrateg ies
Ġh int
Ġse ptic
Ġpre historic
Ġnegot iate
ĠGr iff
Ġinval uable
w atch
Ġto ken
ĠC BD
ĠCor inth
Ġaw ake
ĠVen ice
Ġth rew
Ġsu ck
ĠSoc rates
ĠÂ «
Ġmas cul
ver bs
Ġco oper
Ġback wards
Ġprogram med
Ġpar alysis
off s
Ġcum ulative
Ġacou stic
Ġnanop articles
f ocus
ent ary
Ġe g
Ġav oc
ĠRes istance
Ġsepar ating
Ph il
Ġoptim ization
g rown
Ġsc ra
Ġbet ray
Ġcard board
Ġvirt ues
ĠLim ited
Ġfilt ration
n atal
Ġtr ump
me al
Ġopt ional
Ġspok es
Ġp ads
Ġour s
ĠSc ale
ĠAtmosp heric
Wash ington
S un
T M
st ar
Ġ4 50
ĠPort land
c i
Ġpost ing
ĠExper iment
Ġexceed ed
Ġaddition ally
Ġintern ally
ĠEm b
uk a
Ġbomb ing
Ġpert aining
govern ment
Ġtravel ers
Ġhyd rox
ĠCount ries
Ġalter ations
T er
Å Ĥ
ĠP ad
ĠL ane
Ġant agon
ĠEl se
Ġoccup ations
ĠÎ ±
Ġrac ist
B P
Ġcol oured
Ġmon key
inc re
ĠBulgar ia
m any
Ġde lete
ph p
Ġform ulation
Ġgra ves
Ġbless ings
ĠCub an
Ġpel vic
re th
at ra
ĠM ust
Ġ19 24
Ġrem arks
stand ard
az ar
Ġarg u
Ġcool ed
ĠId aho
Ġfabric s
Ġblow ing
Ġch ol
ĠL l
ĠV el
or p
Ġb ump
ĠM ack
Ġide ological
Ġ0 1
Ġconduct or
ĠAdvis ory
R esp
Ġh oc
ĠB ee
Ġver ified
Ġexch anges
ow ers
er ative
ĠR N
Ġse ab
oph ysical
Ġvig il
Ġcataly st
ĠPrad esh
Ġsc ary
Ġspec ulation
Ġreg imes
Ġdr one
Ġcapac itor
ĠK ir
ty m
Ġrest s
Ġmind ful
Ġsecret ion
Ġev ap
com mer
Ġtox in
Ġthr iving
ĠCommission er
engine ering
r ina
Ù ĳ
Ġb red
Ġmon opoly
ĠBe aut
Ġgall on
ĠCamb odia
Ġs pp
ore rs
Ġle tt
Ġrest ra
Ġstim ulated
Bet ween
U lt
Ġ !
er ion
Ġh ive
ĠK ur
ĠV ent
Ġdon ations
Ġfil tering
e val
Ġg i
oura ble
ĠHol lywood
ĠSecond ary
I ES
Ġs age
Ġsh y
ric ting
Ġslow ing
udd y
Ġtun ed
ĠScand inav
J ournal
Ñ ĥ
Ġ1 11
ĠH omer
Ġall oy
Ġun even
lu ent
Ġemer ges
ĠFin ance
Qu estion
h ored
â Ĩ
id ad
ĠC er
Ġun related
ĠMe aning
Ġtrack ed
Ġroll s
pos ium
âĢĿ ?
Ġrev olt
Ġexplos ive
S ection
l ay
Ġv as
Ġpost ers
oph ys
Ġundert aking
Ġbasket ball
ĠTanz ania
Ġep ist
Ġdischar ged
Ġpropag ation
g reat
Ġf ancy
Ġm ock
Ġto ps
ro cess
An n
Ġpoll uted
Ġshar ply
ĠÎ ²
Ġunus ually
ĠNon etheless
commun ications
Ġinvestig ator
Ġqual ifications
Ġcultiv ate
in als
Ġl adder
ĠB anks
Ġinter disciplinary
Ġdr unk
Ġdeb ts
ĠJud ge
Ġarchae ology
Ġdispar ities
Ġasym met
o S
re ation
le af
ĠW ag
ĠRe agan
ason ry
Ġwar rior
ĠMil ky
ĠPower Point
ĠIns urance
dehy de
Ġ Ä
Ġar che
Ġinter change
ĠHealth care
roll er
Ġpriv ately
Ġaltern ating
Ġvot er
ĠHor iz
ure rs
Ġ19 26
Ġsol itary
Ġlow ers
Ġreb els
M ain
c row
res olution
ĠL it
ous ands
Ġredu nd
Ġpoly mers
bl og
ĠSpec ific
Ġvulner abilities
ĠSal v
Ġneut r
ĠDen ver
l ass
in ion
Ġfig ured
Ġtrou t
Read ing
ĠTre asury
ĠEnc ourage
Ġrefriger ator
Ġrecru ited
Ġintercon nected
Ġinfest ation
W R
c urrent
um my
Ġacc ent
uc ing
ina i
ĠSe qu
Ġphot ographic
Ġconc ise
Ġrecip ients
ĠProper ty
H yd
ĠM is
us k
Ġ18 48
Ġorigin ate
f ar
em porary
ĠG O
ĠN ames
ĠNot ice
Educ ation
ĠPos itive
ĠB ak
Ġpl ed
ful l
AR D
ĠHar per
Ġflood ed
Ġfacilit ates
ĠGard ens
Ġw art
Ġtw ist
Ġass ure
Ġinter mitt
Ġsim ulated
Ġenc oding
Ġblank et
e ating
er able
Ġl am
ĠÃ ¢
ĠWall ace
W ant
p g
ĠG othic
Ġcol der
Ġpat ents
ĠWh ole
enn ial
ĠRec y
Ġguarant ees
ĠUk rain
ĠOd ys
Ġd welling
Ġl b
ĠThe rap
Ġtrans itions
Ġpain ts
Ġreal ization
ĠFr ances
Ġlaun ching
Every one
Ġmart yr
ĠCompan ies
re ason
Ġc aste
Ġsh adows
ĠSt orm
Ġany body
Ġhyd rop
ĠHall ow
Ġdil ig
U E
Ġe uro
Ġl aund
Ġar rows
Ġhard y
× ¨
id o
ĠP olar
arent ly
Ġstrand s
Ġimprison ed
ĠStew art
Ġargu ably
ĠL as
ust omed
Ġsc rub
Sp ace
l ier
iv able
Ġr heumat
ĠF itz
AR E
ĠQu ick
Ġcoc aine
C are
Ġn ost
ex cept
Ġanim ated
Ġconstit uted
A cc
c ards
h im
Ġb atch
Ġdev il
Ġreb uild
Ġmamm al
Ġalarm ing
ĠHung arian
Ġf ighters
le e
ract ive
Ġsec uring
ĠCommun ities
Ġagg ress
Ġban anas
Ġhipp ocamp
o j
Ġp ier
ark er
An swer
à¤ °
Ġmission aries
N F
ĠW ol
ĠG on
Ġ19 27
Ġqu eries
osp els
Ġmiss iles
Ġintent ional
Ġtransc end
Ġexclud e
ĠInteg rated
or ian
Ġst airs
ĠF inal
ĠCh ick
Ġtest osterone
pr im
Ġbi ases
P arents
ast ro
Ġavoid ance
Ġtou ches
Ġcough ing
ĠT as
Ġan esthesia
op us
ens ions
Ġob edience
Ġunivers ally
ĠConstitution al
Ġov arian
Ġverte bra
P ower
Î ²
Ġsc ream
roll ing
Ġanaly tics
cont aining
Ġquiet ly
Ge orge
Ġstain less
ĠM aint
ish n
Ġindic ations
ĠDesc ription
Ag ain
atern ity
g i
on line
ĠA aron
Ġon ions
Ġde ity
Ġsc arcity
Ġhand les
ĠTo xic
Ġornam ental
rough ts
19 80
Ġmo ons
Ġencourage ment
Ġwid ow
count ry
Ġth igh
Ġl ord
Ġinv ari
Ġless en
ĠEc uador
ĠAltern atively
Ġg room
ĠK in
ĠAn xiety
Ġcy an
ĠTur ks
ĠIncre asing
Ġgrad ers
ĠMit chell
Ġtransist or
o qu
Ġ ____
Ġc uc
ĠMont essori
Ġfacilit ated
ĠAstr onomy
P O
T r
en cer
ra is
AN T
ĠStat us
ĠSing le
abb ath
Ġbe ating
Ġst al
am ph
ĠR ou
Ġcor als
Ġpen insula
Ġâ ĪĴ
En ergy
OC R
Ġsmooth ly
rell a
Ġw oven
it ures
Ġf al
Ġd yst
ĠM ale
line ar
e ers
Ġb il
Ġb oring
ĠA chie
ĠK il
Ġprof iciency
Ġoptim istic
Ġyield ed
ĠVe h
Ġt il
Ġm int
ĠSub ject
aph rag
s ometimes
ĠK on
Ġge othermal
ĠR oll
ĠRich ards
imp se
ĠAlexand ria
R oman
u ating
Ï ĥ
ĠD ial
Ġapp end
Ġmake up
ĠFre ud
Ġconqu er
ĠIn n
Ġdec imal
Ġant imicrobial
ograph ics
ĠMet eor
ĠMont gomery
Ġpolicym akers
w rite
om ers
ĠH C
Ġmy riad
ĠCirc le
comput er
Ġf ishes
Ġcan als
Pl ant
Ġske pt
Ġsurge ons
ĠEsp ecially
L and
Ä ĩ
Ġl os
ur ved
ĠN ord
Ġam yl
Ġmark ings
Ġvol t
Ġaim ing
ĠElect rical
ĠEpid em
Ġl i
ate mal
ĠB ou
Ġdis reg
ok a
ĠK or
Ġoper a
ĠEx cess
Ch inese
Ġsymmet ry
M en
ar re
ut ory
ĠG em
ath a
Ġcal f
ĠBe hav
sw ers
Ġdefic ient
Ġdistract ed
ĠZh ang
Ġprecurs or
n umber
s kin
pl ates
Ġimp ulses
Ġaff air
ĠChurch ill
Ġleaf y
Ġs erm
Ġwe ird
irm ingham
AS E
Ġasc ertain
thod ont
Av oid
ĠCar negie
ĠMat ter
ĠMet ropolitan
p arent
Ġon c
Ġr anged
ĠG rey
__ _
Ġste pped
Ġinvent ions
Ġprompt ly
ugg ing
Ġsail ors
Ġimprison ment
Ġmicrobi ome
Ġd engue
op erate
iar ism
Ġmig ratory
Ġancest ral
Ġprem ise
arb ons
N ame
Ġb achelor
Ġh ib
ĠY an
the se
ipp le
Ġcomplex es
ĠTw enty
Ġinstall ations
stitution al
ĠExper ts
ĠCond itions
Ġamend ments
ĠF R
Ġco ated
tle ment
10 1
ĠComm ander
AC K
Ġdownload ed
Ġmarc hed
Ġjun ior
H en
L D
Ġa fore
an cer
Ġfor k
Ġpres idency
Ġenvelop e
o an
ro aches
ĠD M
Ġgo at
Ġexp ands
Ġche er
Ġder ives
ĠFle et
Ġcuis ine
T alk
Ġpr uning
Ġcoll isions
Ġanaly se
ĠBiod iversity
Ġt iger
Ġl az
ur ry
Ġtem p
Ġ16 00
Ġvari ance
ĠAustral ians
Ġcapt ures
ĠMil k
Ġresid ue
ĠLess ons
Ġvend ors
Ġal tering
Ġview ers
ann ers
Ġhor ror
ony ms
ij i
Ġincons istent
i ologist
Ġre lic
ĠAm sterdam
ĠSum mit
ĠExp osure
ĠFisher ies
b ia
Ġf ond
ĠS ut
Ġcrit ique
Im pro
ĠPitts burgh
E th
Ġst amps
Ġbr ide
Ġz oo
Ġfa ults
Ġhon ored
ĠVal ent
Ġpossess es
Ġglac ier
ĠIncre ase
th ose
Ġrep ository
Ġem ploys
Ġinter cept
Ġdep icting
Ġadvoc ated
Ġtoler ant
ĠOrig inally
Ġnoun s
Ġanat om
Ġcategor ized
ject ives
Ġorder ing
Ġprop oses
Ġjournal ism
ĠPartners hip
g ard
n ative
Ġb ending
Ġcomp elled
Ġres ume
Ġco ined
Ġplay ground
Ġmunicip alities
ĠPier re
f olk
Ġc asc
ĠC ort
ĠM aps
Ġdifferent iated
Ex p
bre ak
Ġbehaviour al
ĠEss ential
Ġcroc od
h art
w heel
Ġm apped
ch in
ĠR ES
Ġadd itive
ze k
! ).
V er
i aries
r ising
ĠW ire
ĠG ates
Ġsol vent
Ġeconom ical
Ġphot ographer
ĠSl av
Ġscript s
H ER
Î ¼
Ġs ailing
Ġst ing
Ġ1 13
ĠH ost
ast rous
Ġadapt ations
Ġpig e
L ink
c ribed
ack ing
Ġpe ppers
Ġtra ded
Ġacc us
ĠHawai ian
Ġanticip ate
P ut
in vasive
ric es
Ġsub set
ĠEx odus
Ġmen opause
ĠAss y
ĠProcess ing
d rop
Ġ _
Ġw ins
un al
Ġunder gone
Ġmon archy
to xic
Ġp ant
Ġvis c
Ġquant ify
Ġs outheastern
Ġh iring
Ġal coholic
ĠThe atre
Ġopp ose
Ġsuppl ier
ĠBur g
Ġaccident al
Ġneur on
Ġsubsc ribe
Ġfemin ist
ĠArn old
ĠB alk
iv ist
Ġpat rol
Ġret rieved
Ġexceed ing
if ers
ĠIn vent
Ġaut istic
Ġpur ification
ĠReg ardless
Ġprox y
" ?
t z
ĠPl ans
Ġsun set
reg ulation
Ġagg rav
Ġteen age
ĠHug hes
T aking
en za
ir l
ĠB omb
Ġtrans ient
Ġgl impse
ĠPl astic
Ġdra ins
Ġsuff erers
Ġgarden ers
Ġinequ alities
G L
ĠF ruit
so on
Ġco arse
Ġend othel
Ġcle arer
Ġwood land
an im
ety l
Ġpp m
l it
s ided
Ġmon k
ĠMay or
ĠDo ctors
Ġpow d
Ġpenal ties
b lo
Ġwe ighed
act ing
Ġca red
Ġnon etheless
asc ar
Ġconflic ting
ĠUp dated
Ġprob iotics
Ġang ular
Ġconnect ive
Con f
n ih
Ġre jo
ĠC u
Th omas
Ġfire f
Ġestim ation
Ġju ices
Rec ently
M ax
it ism
Ġb ic
ĠL isa
Ġinf ancy
Ġco hes
Ġcoast line
Ġ190 4
inf ected
Ġdrople ts
Ġseaw ater
b ank
r Ã©
at ts
le tt
ĠT ropical
ĠN athan
ĠBrig ade
ĠM T
ĠE ither
ĠE lder
ĠN ixon
Ġar rays
Ġret aining
Ġsort ing
develop ment
fil m
Ġindef in
Ġr ounds
Ġrep ent
Ġmor b
Ġexerc ised
ĠMon ument
Ġmission ary
sor iasis
Ġexcav ation
Sah aran
Ġo val
ĠF ib
ag ogue
ĠK night
Ġhad n
organ ized
Ġbapt ism
Ġmaneu ver
ã ĥ
ĠC oc
iv ial
Ġass urance
Ġdisc retion
Ġcur b
icult ure
Ġsolid arity
ĠEnd angered
al ach
us a
ĠG roups
iz ards
Ġob struction
ĠBrit ann
Ġcollect ors
ĠMy th
ĠAir port
Se lect
l ide
Î »
al ia
ĠIn sect
Ġexp elled
cl in
Ġcart oon
Ġment or
ĠWhere as
Ġdisin fect
C ong
V s
f ile
ĠSt uart
Ġide ally
Ġprevent able
Ġinit iation
Ġstation ary
ĠContin ental
Ġanaly sts
Ġencl osure
Ġreh ab
sens itive
Ġfortun ate
Ġcan s
Ġproceed ed
eli ac
Ġorb iting
ĠBehavior al
ĠWy oming
Ġare na
Ġint eger
Ġprob es
-- -
Ġpump kin
ovolta ic
Ġc ube
st ick
ĠH ipp
ĠE T
ĠF ine
Ġpr inters
Ġdev ote
Ġpolit ician
Ġunsu ccessful
ot ide
Ġmet aph
Ġsad ness
Ġdeple tion
Dig ital
Ġcompuls ory
Ö ¼
Ġd yes
ĠB orn
ĠB ald
ib ular
Ġconf irms
Im agine
D el
er ated
ol ate
ĠC arm
Ġfl ush
Ġfil tered
Ġrain y
Ġvalid ation
198 9
Ġsevent y
kl ore
Ġa ux
ce mia
Ġresp iration
Ġmon ster
der ived
Ġrece ipt
Ġrepl en
ĠApp roximately
mat ical
Ġcrew s
ĠArmen ian
Ġubiqu itous
an ne
ul ators
ue z
Ġown s
gg er
unt ing
Ġpersist ence
Ġcompos itions
chest ra
B uilding
Ġst alk
ĠN ormal
Ġdis astrous
ract ing
ĠEd wards
ĠPre c
Ġtodd lers
f ired
Ġnot ation
ock et
Ġreprodu ced
ĠOrgan isation
Ġmanifest ations
Ġw it
Ġl amin
ĠR av
ĠV i
Ġins ign
Ġ189 5
ĠSte el
ĠT M
Ġgood ness
ĠRes olution
U SA
ĠC ome
ard i
Ġinc arcer
ru its
Ġfisher men
c s
Ġw itch
ec al
Ġdis gu
Ġsc ent
Ġup stream
Ġsn aps
Ġma ize
B er
et ooth
ĠC ord
Ġas ylum
ber ty
Ġsk ies
enn on
ĠNe urolog
Ph ysical
Ġappoint ments
win ning
Ġt ant
Ġpred icts
Ġcarbon ate
Te chn
ĠVo ice
F re
Ġs ne
is ans
ĠH oney
erg ic
ĠKeep ing
Ġnort heastern
Ġlandf ills
Ġal beit
ĠB ru
Ġpo etic
Ġhum il
ĠWeb ster
Ġpun ished
S il
ĠM alt
ĠF uk
Ġster ile
l ocal
or ative
ĠT rad
Ġst agn
ell s
ie u
Ġcommit tees
Ġâ ī
C oll
u f
ĠR ing
Ġdel ta
Ġfat alities
Ġcop ying
ĠGu y
Ġassist ing
Ġappe als
ĠSex ual
b us
w ild
Ġl umber
Ġmort gage
Ġcab bage
Ġconstitu ents
ĠiP ad
Ġculp rit
ch air
Ġwor ries
In s
ĠSh aw
Ġred dish
ĠRoman ia
Ġconfront ed
ĠConstant in
Ġlivelihood s
ĠEn h
Ġfront al
AS S
Ġmaster y
Ġpupp y
S er
Ġcl o
Ġass ays
Ġcred ibility
Ġjoint ly
ĠSat an
ĠGir ls
l iter
Ġf ibr
op ath
Ġup grade
ert ation
sc ar
Ġnav y
Ġcrow ds
ĠFil ip
Ġextrem es
Ġplaus ible
es ian
Ġl ays
ab we
Th ird
Ġelectroly te
ĠMorm on
s aving
Ġf are
Ġm l
Ġl ing
Ġcom ic
ĠKe vin
Stud y
Ġdefend ant
Hel p
Ġd ances
Ġopen ings
in arily
Ġsp acing
Ġste ering
Ġcompl ain
Ind ividual
b ig
Ġbe ast
ib les
Ġglobal ization
Ġpath ogenic
Ġpossess ions
ĠS or
Ġdeb ated
ĠPre vious
Ġabsor bing
Ġthick er
Ġdiss olve
ĠLat ino
ighth ouse
C ertain
p aper
Ġp sy
Ġb ile
Ġre un
ĠT rain
ab ol
Ġres ign
Ġdec oration
Ġdra ined
Ġtext iles
umb ling
IC S
bl ue
ĠS ARS
Ġed itions
ah an
Ġphysic ists
Ind eed
Ġvig or
Jew ish
D M
M ary
ĠHe in
uk i
col m
Ġsor ry
ĠCommer cial
P G
T w
Ġc ir
ish a
Ġeru ptions
accept able
M RI
S pe
g roups
Ġreservoir s
Ġfor aging
ĠL ands
âĢĿ :
Ġunderstand able
Ġviol ated
ĠInt el
ĠHer bert
Ġdors al
B est
b ands
Ġ ________
ig a
me aning
ĠZ ika
work ers
EE E
P rim
er obic
Ġw omb
ro ot
ent ry
ĠS oph
ĠB irmingham
ĠG L
Ġdeleg ates
odynam ics
ĠHallow een
Ġsupp ressed
Ġdesp air
ĠOtt awa
Ġn emat
Ġ[ âĢ¦]
Ġ190 3
Ġglac ial
Ġdatas ets
keep ers
Ã ¸
á ½
Ġl bs
ĠP ont
Ġsu ite
Ġ10 4
Ġ' '
AS H
Ġcontract ing
v ents
at onin
Ġsp o
Ġacc ustomed
Ġchief ly
Ind ian
Ġdress ing
Ġhack ers
Ġt read
ct oral
Ġcrit erion
Al ong
yl ene
ION S
ĠRock y
× Ķ
Ġstr angers
Ġleg umes
med ia
ĠChe roke
Ġpione ering
Ġsc ared
Ġsl ice
ĠCy cle
ĠOm ega
h on
Ġn arc
Ġins ur
Ġworry ing
ĠNurs ing
ĠB elt
ke eper
Ġsp ans
Ġins ist
Ġknowledge able
AN S
Ġfant asy
Ġst en
ĠSt rait
Ġher ds
Ġport raits
ĠVenezuel a
W rite
Ġsp heres
Ġfl ank
Ġsupp lying
ĠMon te
ĠEv ents
Ġbudget s
ograp hed
Ġsuspic ion
r ud
iz za
Ġdiagn oses
iot herapy
Ġneut ron
Ġflat ten
Ġtraject ory
v ier
ĠW A
ĠDe an
Ġmult id
Ġdepend ency
ĠNov a
ĠNi Ã±
ĠNort heast
Ġsuperf icial
C am
L ight
P ot
Ġreal ise
Ġsan ctions
ĠAny one
) âĢĶ
d al
id ian
ch anging
Ġen riched
Ġstr anger
Ġpsych iat
ĠRead er
Sh ould
ĠRad iation
Ġbeat en
ĠStan ley
Japan ese
Ġl umin
ĠE lements
Ġ3 000
Ġhold er
Ġsuper natural
Ġexplore rs
ĠWW II
m ake
or por
ĠS oci
ĠL un
Ġreal izing
Ġfin ances
Work ing
l on
ĠW or
Ġfl aws
12 5
ĠInst ru
rosc opy
ĠBuff alo
M ass
Ġl iable
Ġinter course
Ġlo vers
C ap
D B
H um
Ġd ess
id uous
Ġhas h
Ġbr ighter
Ġabs urd
Ġsett ling
Ġallerg ens
Ġreven ge
link ed
ĠCommer ce
Ġlett uce
F ull
c orn
on ial
ĠH undred
Ġdet ention
Ġflu orescence
ĠDiff icult
Ġsearc hed
L ocal
R o
e ight
ĠH ume
Ġsy nd
ĠAl m
ĠProgram ming
Ġpin point
Ġpreced ed
Ġadvis able
ĠCoal ition
P rodu
ic uous
du ino
Ġall ied
Ġexperiment ation
Ġevac uation
J oin
Ġt ect
Ġst yl
qu al
Ġgener a
Ġsens ations
ĠDr inking
ĠHon or
m icro
w ould
Ġc hess
ĠV as
Ġdep ict
ĠGu atemal
Ġcred ible
Ġbeautiful ly
ĠOb viously
Gen erally
ĠExpl orer
Ġmanifest ation
ro e
âĢĿ âĢĶ
par ing
Ġconduct ivity
uth ors
ino ids
ĠDem on
ĠHom o
Ġmillenn ium
at on
Ġp its
ro ved
Ġmy el
ĠAd obe
ĠInt rodu
ĠPal m
Ġsed entary
Ġlifest yles
Ġsubsc ription
Ġenjo ys
ĠC ad
ĠC up
Ġsym pathy
Ġacid ity
Ã «
ra cle
so le
Ġcl ocks
Ġpresent ly
Ġsens it
Ġwr ink
Ġrev ival
Ġ24 0
ĠAut o
Ġveter an
hand ed
ĠVeter ans
Ġenroll ment
Ġm oth
Ġfound ers
Ġest eem
Ġ0 8
ĠLe o
ĠJama ica
Ġh iking
ĠS ites
if ted
ag in
ĠIn come
Ġfre ight
Ġchem ically
ĠConf lict
Ġstar vation
Ġadvis ory
W riting
d est
Ġcon greg
ĠN ad
rit es
Ġreflect ions
ĠRh ode
C reate
ĠSt ri
Ġver t
ĠCo operative
Ġaccomplish ments
Ġgest ures
ĠWe bsite
Ġgeneral ized
Ġexception ally
E ast
c ross
p rom
Ġ18 12
Ġmal ignant
Ġpump ed
ĠEss ays
othel ioma
Similar ly
Ġd roughts
im ates
ĠV ul
Ġread iness
Ġcat heter
Ġign oring
Ġfacilit ating
Ġsculpt ures
ĠQur an
Ġan ecd
ĠM erc
Ġsp ouse
ak y
Ġi Phone
IC AL
IC EF
Ġfertil ization
Ġchamp ion
Ġin organic
Ġview point
ĠLe ave
worth y
er os
Ġm osaic
op last
ear th
ĠComp uting
Ġabol ished
c over
ĠH z
ort ions
ĠY am
ĠAl g
Ġdef ended
Ġcur s
Ġmult imedia
ĠPict ure
Ġcaut ious
Ġrefere nd
Ġt am
ĠM W
ĠE SA
âĢĿ ;
ros ophila
Ġadvance ments
ĠBegin ning
ĠC V
Ġhe ater
Ġv ap
ĠO ECD
ĠY ug
urn ed
Ġequ itable
ĠDis abilities
ĠVol can
ĠCyp rus
l ength
ath on
Ġref res
Ġ10 2
Ġdon ate
ĠMe an
Ġmut ually
ilit ating
Ġesoph agus
ip el
Ġun just
Ġco aches
Ġcirc adian
ĠSur ve
Ġo z
so lete
sh ould
Ġir res
Ġcondem n
ĠIb id
Ġdispos able
a ffected
i atic
ï ¿
em er
Ġsc oring
Ġatt ent
Ġfl ames
ĠComp are
Ġblow n
Ġstabil ize
pend icular
Ġcan e
Ġch alk
Ġclin ically
U I
Ġt art
Ġe go
ĠA ffect
ĠN R
Ġflour ish
ĠPhill ips
Ġm RNA
ur ations
ĠM ead
Ġvill agers
Ġbuy ers
Ġ190 2
V ideo
n or
in ational
ĠB ath
iz a
Ch ild
Ġslow s
Te ch
Ã ª
Ġp ause
Ġne u
ĠV ed
Ġdi aphrag
Ġcre st
hold ing
ĠGr ass
Ġaspir in
im age
ĠB R
Ġprogress ively
mans hip
Ġin oc
Ġr im
Ġdisc rep
Ġtechn icians
Ġcollect s
ĠPr incess
Ġrecover ing
Contin ue
Ġorph an
Ġant iquity
Ġimag inary
Of ten
Ġfold ed
Ġastronom er
ig rams
Ġcl ue
Ġtra cing
Ġdist ortion
Ġdoub ts
Ġ189 3
Ġvibr ations
Ġrupt ure
Ġexting u
d egree
ĠK o
Ġclass ify
gen eral
Ġ0 2
ĠUs ers
ros clerosis
ĠVir us
Ġing en
Ġelimin ates
press ure
Ġensl aved
Ġec zema
Ġsens ible
ĠApp ly
Ġcustom ary
ĠDesc ribe
ra h
ĠB ert
ĠG ov
ĠJ en
ap a
Ġhigh ways
Is rael
Ġcand les
Ġempower ment
Ġexpend itures
Ġremn ants
t ain
ĠR oot
Ġback ing
ĠGod s
Ġself ish
ĠDisc ussion
Ġ185 7
neg ative
H ead
ĠI X
ag ascar
ĠExper imental
Ġsubur ban
Ġb ury
Ġle ase
ĠL ives
Ġcl an
Ġun im
anc ipation
hel m
ĠBr ight
Ġlic ensing
C ur
ĠD ys
ĠG ross
Ġevap oration
res pect
oc ese
Ġgl orious
IT H
198 6
Ġremote ly
Ġsafegu ard
L aw
â Ĺı
al one
Ġ1 16
ĠCon duct
ĠCl ose
ĠSec ular
Ġ189 6
Ġdecomp osition
Ġsho ots
Ġdub bed
i ang
am ines
Ġvacc inations
Ġsem antic
Ġgran ite
M ad
ĠT es
ĠG rowing
Ġsh ine
Ġad herence
Ġrec alls
Ġ17 0
Ġrain bow
ĠTrans fer
ĠOb esity
ĠReview s
ĠFac ulty
ĠAltern ative
Ġinfl amed
Ġcin namon
M B
Ġsent enced
ĠAnt ib
ocy te
ĠCe le
opot am
ĠS aints
ĠN IH
Ġsh aking
ple mentation
Ġmethod ologies
Ġcho oses
ĠCom ments
ĠJul ius
ĠPhilipp ine
re search
Ġ10 3
Ġir rad
ber y
Ġreg ain
Ġadd itions
Ġbo iled
ĠAz tec
Ġaspir ations
l oss
Ġb ishops
st ore
ĠG row
Ġsign atures
ull ivan
Ġfore front
Ġlaws uit
uff s
bal anced
Rober t
Ġl end
ig ers
Ġ1 14
Ġpl un
Ġevalu ations
Ġly rics
Ġus able
Ġbegin nings
Ġflav ors
Su per
ĠRw anda
id ated
Ġsp herical
ĠAl pha
ank ton
Ġpatri arch
re viewed
Ġday time
Ġ10 6
Ġdisrupt ed
Ġnom inal
A G
Ġc ray
Ġw rest
Ġp aved
ic able
ri en
ĠL ion
ĠL ung
ĠInf ection
Ġgest ure
Ġmoder ately
ĠF inding
Ġexp ans
Ġpop ul
Ġbo iler
Ġmodel ed
Ġpersonal ities
Ġfort ress
Ġfulf illing
Ġbind s
ĠPoll ution
Ġmitochond ria
: -
S olar
Ġg inger
Ġ1 19
Ġby tes
Ġab uses
Ġbl ended
Ġret ard
ĠSh ar
Ġfr anch
Ġconc ussion
che ck
Ġfib res
Pl an
izz es
Ġdeple ted
en berg
ĠM au
ĠB od
Ġr ipe
Ġ188 8
Ġunderm ine
f em
ĠU T
lex ia
ĠGir l
ĠFem ale
ĠArchae ology
I AL
V ery
Ġd ock
ĠW heel
Ġcompar atively
Ġcyber security
ĠInit ially
k ar
ling ton
ĠIm aging
Al tern
ĠLib eral
ĠDou ble
Ġsug ary
Ġhorn s
Ġenrich ment
B ER
as uring
ill us
ag ar
pl ication
pl anes
ak ia
Ġclass mates
ĠSc ots
Ġfair y
Ġrab ies
Ġampl ifier
Ġgast ric
Ġsurre nd
ĠConc ord
Ġinterven e
Ġp ent
Ġf ins
Ġlo ops
Ġsw amp
Ġmarket place
Ġmouth s
Ġisol ates
Ġsoy bean
Ġpeas ants
Ġdorm ant
e ff
r il
ĠM ail
Ġreg imen
ron ts
Ġhom osexual
isp ens
m illion
Ġv ault
em ail
ach i
Ġprot ons
erg us
Ġreb el
ĠHel en
ĠFe el
Ġcruel ty
ĠBud get
N OT
ĠF al
Ġsub species
Ġcand le
ĠAdd ress
Ġsummar ized
ĠBrother s
os lav
Ġres olutions
ph ase
ĠUS D
utri ent
P resent
est ones
ĠL ost
Ġmer ged
Ġminim izing
ĠLead er
ĠRog ers
Ġpancreat ic
Ġsubmer ged
B ur
M ethod
S am
Ġb ord
Ġdec ree
Ġenhance ment
Ġsup rem
ĠCirc uit
Ġmini ature
Ġleak age
Ġirre levant
g rams
ĠZ ero
Ġexpect ing
ĠWorks hop
ĠConstantin ople
Ġg or
ĠS ikh
ĠDo ing
ĠReg ulation
ĠInst ruct
Ġtal ented
M ENT
f light
ĠM ob
ll or
Ġlog o
198 8
Ġrelax ing
ĠDrug s
ĠLi u
ĠOffic ial
Ġev angel
Ġover flow
Ġover sight
Ġver tically
ĠOld er
Rec omm
Ġderiv ative
ab sor
ĠMah ar
Ġneighbour ing
Ġin efficient
ĠN J
ivid ed
reg ulated
Ġfig ur
ĠNeuro science
L ater
P ract
Ġh ives
ĠE is
Ġhum ming
ĠAll ies
Ġcontract ors
Ġvent ric
ĠOccup ational
ĠCov id
ĠT rou
ĠS weet
ĠCl are
Ġunw illing
rust ed
laim ed
Ġhed ge
c d
Ġh ips
il ian
ĠM ul
ĠW ool
ĠCh anging
Ġdisc ourage
Ġsouth western
Char les
op ping
Ġelect roc
Ġprevent ative
Ġsymbol ism
Ġoptim ized
Ġirre vers
is ch
ĠS low
Ġst ove
ess ment
Ġabsor bs
medi ated
Ġcompost ing
ĠHem isphere
L ittle
m iss
Ġo ath
Ġs arc
ĠC ause
Ġhel pless
Ġslow ed
Ġlog istics
ĠTechn iques
ĠPat ient
Ġ186 7
EL L
Ġthin ner
Ġid ol
Ġweigh s
Ġau ction
E PA
at ched
Ġcl er
Ġj ealous
Pro ject
he e
Ġc ath
Ġb ilateral
ac id
ex isting
Ġmet adata
S at
d esc
Ġp df
ĠC ats
Ġout we
Ġdipl om
er ly
op al
ĠH A
Ġport al
ĠPun j
ĠC rypt
ĠF ailure
inf ection
Ġwre ck
K ids
Ġd ad
ric ula
chie f
Ġcentral ized
Ġdead line
p ract
or ate
Ġpro active
ĠH ub
ĠE ur
Ġrep aired
Ġinter sect
Ġent ails
iment ary
Ġsuperior ity
Ġt an
ĠM ix
Ġam p
W ild
ig ating
ĠSe ason
Ġfour teen
Ġconstruct ive
Ġ186 8
Ġgrand parents
ĠStart ing
imb abwe
Ġhelic opter
Ġlaund ry
H L
ĠR alph
ĠG uru
Ġsp arse
Ġcy sts
ung al
ĠPubl ishers
S elf
w oman
Ġp iles
Ġunder went
Ġstory telling
Ġbar n
ĠPer ry
ĠPas sover
idel ity
Ã ¯
Ø ¨
ĠR y
Ġar id
Ġdef enses
br ance
Ġcomput ed
ĠBas il
Ġampl itude
Mat thew
ĠMoroc co
V ER
W ritten
he id
Ġf ights
ar g
ĠT ong
Ġse ated
Ġse greg
ren ces
ven ous
Ġsix teen
Ġdisp osed
Ġing est
Ġhero ic
Ġhem oglobin
Ġm aid
ograph ically
ĠPresident ial
ĠNeed s
ĠSep ar
ĠA ur
ĠR ick
ĠR yan
reat h
ĠV R
Ġhel ium
Ġco y
Ġpres erv
Ġfoot age
spec ial
Ġprosper ous
ĠT ak
ĠD aw
Ġch airs
ĠR ol
less ed
Desc ription
P ol
it ching
ĠG ary
Ġcl ips
Ġqu artz
IN T
Ġdisp ose
Ġscreen ed
ĠCongress ional
Ġendeav or
Ġo st
Ġdis ks
Ġcons erved
Ġsocial ism
iction aries
Ġsatisf ying
ĠSac rament
ĠKrish na
l ag
ĠV oc
Ġreal ised
Ġspecific ity
OR Y
Ġhop eless
Dep ending
Ġvegg ies
Ġf ills
ut an
ĠP O
ĠB acon
art a
Ġk not
Ġpres idents
Ġhard est
ĠRequ ire
ourge ois
k ward
Ġcan cell
Ġdest iny
hol m
ect omy
Ġar ithmetic
lud ge
ĠUS SR
by ter
Ġspect ral
P sych
Ġb iting
ĠB rist
ĠL ex
ĠCh an
Ġasse mble
198 7
Ġpersu ade
Ġtorn ado
y ards
se ed
ĠC inc
ĠCh in
10 5
iol ent
bul lying
Sy stem
ĠW ear
Ġany time
Ġexp orted
Ġdep ressive
ush ima
ĠHer od
Ġmut ant
resp ond
Intern et
ĠRon ald
intend ent
ĠBened ict
l antic
Â º
en o
se ason
Ġ18 20
Ġpig ments
ĠPH P
Ġsquir rels
c it
m ith
Ġb ilingual
um ar
ĠW u
ud ed
Ġover dose
az i
ĠEx ped
be fore
Ġmig rated
ĠSam ple
egrad able
M O
b low
g r
or um
Ġh ull
Ġcl ots
Ġimp osing
ĠCh ance
Ġhead lines
Ġcancer ous
part icularly
M o
Ġt ails
en ic
Ġf el
id y
Ġcl og
Ġtre asures
Ġprompt s
aunt ing
Ġtoothp aste
Ġch ords
oc on
ĠR ica
ast ical
Ġend ors
Ġ0 3
Ġtend encies
Ad v
ĠTas man
F OR
qu est
Ġch icks
ĠG ay
ell ows
are a
Ġnew est
Ġsew er
ĠON E
l ater
Ġp rag
Ġpl umbing
Ġadapt ing
Ġdivid es
Ġplate au
Ġinsert ion
Ġexch anged
Ġlig aments
ĠPhoen ix
on gh
il ized
Ġcan ned
Ġrad ically
Ġneuro science
Ġsmell s
l m
r ase
ĠW ere
Ġover see
pro gram
Ġmel ted
ed er
ĠS olid
Ġdisc s
Ġcontin uation
Ġdest inations
Ġsal aries
ĠMill enn
ĠVin cent
ed ical
ĠS inai
ĠD iss
als y
EN CE
Ġt atto
ĠR s
Ġman gro
Ġcol orectal
Ġins ult
ĠBl acks
Ġpack aged
Ġbed time
B s
d ie
Ġf ructose
ĠS hip
Ġal ly
ĠM Ã©
Ġad jective
Ġmay or
ival ent
Ġoverl apping
Le vel
Ġshock ed
ĠMid west
ĠIndones ian
ĠT odd
ĠS ustainability
ĠC ave
ĠUn less
up us
eg as
ĠLe af
Ġdest ined
Ġtrig lycer
Ġrif le
ĠB ring
ĠF IG
av oid
Ġun lock
ĠAd ding
be ans
ĠBe hind
Ġchief s
ĠLanc et
w y
os itions
Ġland owners
ĠPl ain
Ġpu berty
Ġdilem ma
B io
c ible
Ġb rit
Ġter ra
Ġcontext ual
Ġprohib ition
Ġkin etic
Ġreconcil iation
U r
ĠC ere
ĠD rosophila
ag les
Ġbenef ited
ĠTer ms
Ġneighbour hood
Ġundes irable
Ġgi ants
Ö ¸
Ġa ided
at ility
ĠTh y
Ġconc urrent
Ġvast ly
Ġdisadvant aged
Ġassass ination
on ts
Ġe u
ur gy
iv orous
Ġsp elled
Ġper pendicular
Ġfl are
Ġutil izes
ĠSupp ly
Ġsimultane ous
ĠBron ze
M ajor
Ġle v
age al
ob iles
Ġam ended
Ġprog nosis
Ġdeep est
ĠMc M
ver bal
ul er
ĠM unicip
Ġsol o
Ġexpect s
Ġspiritual ity
Ġheaven ly
Ġfemin ine
Ġunch anged
prising ly
ĠB our
ical s
ĠN ine
Ġno ises
Ġreg ret
Al most
Ġarm or
Bl ue
Ġpione ers
ĠKy oto
Ġdur ability
Ġv i
ĠL is
Ġafter ward
Ġsince re
Ġcontem por
Ġshel ves
ĠMad agascar
á »
ĠS ett
Ġinv ade
Ġtick ets
l ance
ut ral
ce mic
Ġv ines
Ġcomp ute
Ġres ent
ĠTim othy
ba um
Ġcoat ings
Ġretrie ve
Ġappro ve
ĠAct ually
ĠSur face
Ġ188 5
art ments
ĠN HS
Ġra p
Ġ0 9
ĠHim self
Ġdiscl osure
ĠW E
ĠD ance
ew orthy
Ġrep rint
Ġbiom edical
Ġtransplant ation
Ġmemor able
Ġsummar ize
ĠRedu ction
Ġchim pan
ĠLaur a
F amily
Ġt rench
Ġun rel
ĠRe ality
Ġbo oster
Ġ10 8
ellect ual
Ġamb ition
mun ition
D ou
Ġp uls
Ġin ward
em b
Ġdep uty
ĠStrateg ic
Afric an
b ies
ent e
Ġl adies
ĠA V
ĠI UCN
âĢĻ )
ĠW el
Ġdisc ol
Ġret inal
Ġing estion
ĠMal colm
ĠArab ian
eck er
ĠPalest inians
Ġignor ant
Ġdis g
ph ot
Ġcommit ting
ĠBr id
ĠGra ce
Ġvalid ated
Ġcosm etic
Ġp add
if ts
os omal
ĠK l
ĠCh a
ss on
Ġnational ity
ĠWood s
Ġbrows ers
Ġtack ling
in ia
ĠG az
Ġres ervation
Ġsoc ket
ĠMod els
Ġ189 9
Ġassert ion
Ġend omet
Ġplan ners
Ġcomput ation
Ġbed room
Ġnic he
Ġric hest
ens en
Ġrel ativity
Ġpop e
10 8
Ġ12 8
16 8
Is lam
ĠExpl ore
cons uming
ĠS id
ĠL LC
ass ic
ĠAr med
ĠSe vere
ask et
Ġmel ody
Ġrecy cl
Ġgar ment
ĠFather s
ĠDall as
ï¿ ½
Ø ³
at ri
Ġst y
ĠC od
ĠP osition
ĠMed al
Ġaccept s
Ġcoun cils
Ġmig rant
Äģ n
Ġconj ug
Ġsatisfact ory
Ġty ph
ĠRecomm end
Ġw ipe
om o
ĠT E
ĠC riminal
ĠN F
Ġdestro ys
Cal ifornia
B egin
Ġant ip
IS H
Ġcustom ized
ĠBat tery
Ġflav our
Ð ²
Ġc ush
ĠT ed
Ġu gly
ind a
Ġdist orted
Ġdr astic
ari at
ĠCert ific
Ġinacc urate
b uild
Ġl ane
ĠL ay
Ġ18 76
Ġsuper nov
Ġsepar ates
Ġl ending
Ġon ion
ĠM ang
ĠGerman ic
L L
in ety
ĠB enn
av an
ang led
Ġmod eration
Ġret in
Ġsil ic
Ġeight een
Ġinn oc
ĠHindu ism
Ġepithel ial
ĠPe oples
Ġassist ants
Ġtun a
Ġwithd rawn
ĠList en
ĠIdent ity
Ġjurisd ictions
M el
Ġcl iff
ĠK os
Ġunc over
ĠReg ulations
Ġid i
re nd
ill as
ĠB le
ag ain
Ġ10 7
Ġsqu ash
B orn
ate red
ĠE P
ĠV edic
Ġind ispens
umb led
Ġconcent rating
ĠAtt ribution
ĠForm ation
t ailed
u ction
Ġt ile
ĠC ondition
em p
Ġmot ives
Ġmor ally
Ġheight ened
ĠRob in
Ġgate way
ĠTar get
Ġpiv otal
ĠR T
ĠF ill
Ġpl aster
ĠO g
Ġorigin ating
ls on
Ġ188 9
Ġjudge ment
ĠPot ential
onel iness
z ero
et ra
Ġen v
Ġcor nea
Ġlist ened
Ġcra b
ca using
Ġquad r
n ie
in v
ĠA PA
Ġinflu x
ĠApp endix
Ġaud it
Ġking doms
Ġcru ise
Ġpersu asive
Ġa ur
Ġa pert
int ensive
ĠInd ies
up on
ĠAc cept
âĤ¬ âĦ¢
âĢ Ĳ
Ġsp y
br ids
ĠCo hen
Ġrot or
Ġcounsel or
i osis
Ġc rick
Ġup rising
ov o
ĠPl aces
app le
Ġprofess ions
Ġmusic ian
Ġfabric ation
Ġdegrad ed
F ire
m eter
ĠS omething
Ġst ained
ĠN ancy
Ġret ro
Ġiss uing
Ġbi ased
Ġsw ine
Ġbal ances
osex uality
Ġlact ose
Ġumb rella
Ġaston ishing
Ġinverte brates
Ġa rous
st atic
ĠC ategory
est ead
Ġsp or
Ġoff enders
Ġbreast s
ĠDec ision
ĠMark eting
Ġaw kward
ĠFarm ers
di agn
ĠMes opotam
ĠRap id
Ġpunct uation
N I
P ers
Ġd ining
Ġv iability
ĠIn g
ĠV ern
Ġ188 6
Ġoblig ed
Ġextens ions
ĠInj ury
am o
Ġun acceptable
Ġob solete
par ation
Ġaff inity
des ign
lar ge
F ive
m ax
ac ic
res cent
Ġcan ine
Ġrep ell
Ġbr an
Ġser pent
Ġmeas urable
fact s
14 0
Ġthreat ens
Ġ189 4
w itz
if erous
Ġne c
ert on
Ġperiod ontal
Ġsulf ate
Ġretail ers
ĠTitan ic
h l
Ġa z
ĠI an
Ġv ain
Ġeconom ist
oph ical
Ġtum our
Ġmamm alian
Ġsup ers
o am
er r
Ġl asers
Ġn inth
Ġsh rine
Ġpat ented
ĠEx am
not es
ĠEc o
Ġneighb ours
author ized
Ġscrut iny
Ġwart ime
Ġen light
Ġsur name
ĠSc out
Ġve gan
Ġtransport ing
Ġrain water
Ġtransfer ring
Ġdistingu ishing
Cent ral
ĠEns ure
st ad
ĠTr uman
Ġstick ing
Ġgram matical
Ġtables p
Ġmira cles
Ġenthusi astic
ĠCru z
w aters
× Ĳ
Ġc ess
et z
ĠK irk
ĠÂ ½
Ġswe ating
ĠPhys iology
Pat ients
ĠAstr onom
ĠSic ily
c ool
Ġle ague
ĠL ag
Ġsp ikes
Ġpre aching
ĠY emen
ger ies
uck er
Ġcust ody
Ġrock ets
Ġmis use
Ġfrust rating
s ay
ull ah
ocy t
Ġdisag reement
u er
Ġsh ale
Ġra ge
Ġinform ational
ĠEm ail
Ġcompl ication
Ġceremon ial
ĠTre nds
Ġmening itis
il itary
Ġst urd
Ġcon es
Ġinv aders
Ġcal ibr
sw orth
Ġcoll ar
Ġrich ness
ĠMong ol
Ġcyt ok
Ġw aking
Ġh ood
Ġinf ertility
ha us
Ġattract ions
ĠSocial ist
ĠDick ens
' )
A E
W estern
Ġin active
ro y
ec ca
lic ation
Ġmill igrams
Ġcircum ference
cript ions
Ġacceler ating
Ġoste oarthritis
ĠVeter inary
ryst al
b ably
h arm
p oll
it he
ĠW ald
un i
cept ual
oot ing
Ġphot ons
Ġever green
Ġbibli ography
S ax
w ash
Ġdep ended
Ġspect rom
Ġmanip ulated
Ġiv ory
Ġre charge
st orms
ĠP od
ĠL amb
Americ a
Ġboost ing
Ġfold ing
g ow
an mar
om i
Ġper vasive
Ġobject ion
Ġmult if
idd ing
ship s
Bl ood
Orig inally
Mich ael
Ġb ree
ĠS omal
Ġend ocrine
Ġbuild ers
str ate
Ġcy st
Ġsuper vised
Ġtri angular
ĠRec ogn
ĠEc osystem
ĠPublic ation
Ġlapt ops
Ġprophe cy
ĠUkrain ian
ĠS abbath
res a
os omes
Ġref usal
19 70
amb ia
Ġvoc ational
Ġdimin ish
prot ected
in ars
Ġre usable
Ġsu ms
Ġca f
Ġhapp ier
Ġ0 5
ĠHar old
Ġcred entials
AM A
ĠFA O
R edu
ic ul
ĠP ries
int rodu
ĠPro c
ĠSh iva
ĠZ imbabwe
ĠPers ons
ĠExpl oration
Ġnob ility
Ġhall uc
Ġinterrupt ed
b eck
Ġs ab
ĠS ons
tern ally
Ġbas ins
ĠBe au
Ġrev is
Re view
Vis it
Ġd ire
ack ed
Ġred irect
ĠComp ared
Ġviol in
ĠGil bert
S en
ĠB ag
Ġr ansom
olog ous
Ġ0 6
Ġing ested
Ġforeign ers
ĠPers ia
ĠBal ance
Ġdens ities
ĠL uck
pt a
ell es
Ġgen res
Ġshe ar
Ġobserv ational
Ġtri angles
Ġcra bs
Ġmid night
ĠDom estic
Ġimpair ments
ĠCharl eston
L o
ĠM I
Ġde ed
Ġhel m
Ġ0 7
ĠAm y
Ġred ness
Ġparas itic
ĠConstant ine
ĠHun ter
T om
k n
l at
Ġun ite
Ġoff ense
Ġste pping
Ġjump ed
Ġincorrect ly
ag ne
ail ability
198 5
Ġfreed oms
ĠClear ly
Ġreferend um
ph osph
Ġcur ricula
Ġvalid ate
Ġpref ix
ĠIP v
ĠMethod ist
Ġpubl ishers
" :
M or
ub es
Ġrec urring
Ġam en
Ġend ured
ĠCon versely
Ġsex es
Ġrespect ful
ĠMy c
Ġten ure
bour g
Ġtransmit ter
report ed
Ġaddict ive
is ks
ĠN W
ost ing
Ġco ats
IN D
Ġattract ing
alm ud
ĠGram mar
G ive
or as
Ġd ucks
Ġl ac
Ġpet als
Ġpra ised
Ġattain ment
P oly
ĠC ret
ure r
20 21
Ġprim ates
Ġhor r
Ġexcav ated
ĠPeters burg
Ã ¥
ar ist
ĠC roat
Ġassoci ates
Ġens ured
Ġge ologic
Ġfra cking
ĠRac hel
Ġsurrend ered
W ood
Â ½
Ġl yn
ver ted
Ġra id
Ġz oom
Ġtransmit ting
ĠIb n
ĠBatt alion
w hy
Ġh ose
Ġat op
reat ive
ĠBi ography
Ġgraph ical
Ġconsult ed
Ġ188 7
Pre vious
Ġcatast rophe
Ġp amph
ing les
ro ots
Ġv icious
Ġr ud
tt a
Ġdoctor al
Ġnan o
Ġbon us
r ason
og h
Ġj ungle
ĠCh rom
ipp ers
ĠAb bey
Ġsevent eenth
mid t
Ġprest igious
T T
Ġn ap
ok u
ĠIs ab
Ġhold ers
Ġfa ulty
Ġfundament als
Ġh ort
Ġon wards
ĠI van
so ever
ĠStud io
chan ical
Ġprefer ably
ĠBas ically
ĠR ig
ĠF oster
ĠL anguages
ĠSt ream
Ġprot on
Ġemp owered
ĠMedic are
F in
th ren
ĠTh ai
oss ibly
Ġdet erg
Ġcor pus
ĠEm otional
ij ah
Ġ186 6
Can ada
ĠJul ian
L anguage
Ġs nee
ur gical
ĠO v
Ġno ct
Ġsec urities
Ġenc oded
Ġemb ro
Ġmess enger
Ġfram ed
Ġworth while
ĠMet al
ĠAtt orney
P rior
Ġhe mp
osc opic
ĠBalt ic
Ġconsp iracy
ist ine
Ġconf use
ĠCor on
F ar
J ose
it ian
ĠSt orage
Ġclear ance
unt ary
Ġ189 7
Ġteen ager
ĠFif th
ic iary
Ġh ath
ĠD ew
Ġbegin ners
Ġphot ovoltaic
ĠAss istance
Ġmagn ets
ĠKe pler
Ġsup ra
Ġprivile ged
enh agen
Ġscler osis
ĠR C
Ġper oxide
iff erence
Ġprog en
Ġ13 5
Ġswe eping
Ġinsect icides
Ġentertain ing
Ġcann on
st en
ĠB erg
ĠH ERE
gh ai
Ġinf er
Ġno on
ĠHe avy
Ġinv itation
Ġwar ns
ae us
asion ally
Be yond
Pl ace
ĠKnow n
Ġdent ists
comm on
Ġmand ated
Ġreferen ced
ig ens
ĠM ull
em ade
Ġrational e
Ġproc ure
ĠP or
Ġrel iably
ert iary
Ġsal inity
Ġpus hes
ĠS oy
oint ed
ape ake
min ster
Ġapplic ants
ĠHol mes
Ġdermat itis
Ġhypot hetical
ĠE ff
all i
ĠTh ought
Ġass ists
Ġ18 71
Ġcr us
Ġthought ful
Ġprogress ed
Ġembod ied
ï¬ ģ
el ia
op ian
Ġsh ining
Ġsp oon
ph alt
ĠV iking
Ġexpl or
Ġ12 00
ĠBr us
Ġregul ator
ropol is
Ġcram ps
on ucle
Ġp acks
Ġbra ces
Ġfair ness
ĠForm at
Ġconfig urations
ĠRand om
s n
s omething
Ġb a
id ine
ĠS eg
ĠB ent
ĠR ut
Ġprot agon
Ġstand point
Ġtur f
ĠSoviet s
Ġsell s
ĠCy cl
ĠJo in
Ġsubur bs
pret ation
ĠB uch
ĠH av
Ġstat utory
Ġsyn onymous
Ġintermitt ent
re v
Ġl ively
im ming
Ġworld view
Ġback bone
ĠGod dess
Ġhead er
Ġimpact ing
iot a
Ġstri pped
ĠCap itol
ĠCho ice
Ġdism ant
Ġfeas ibility
ĠGalile o
C a
L at
ĠG arc
Ġtr ivial
ĠCan aan
ĠAll ergy
unt ed
Ġur gency
Ġgar age
Ġarom atic
Ġderiv atives
b oy
ĠL ip
Ġatt en
.. ."
Ġwood y
Ar thur
Ab stract
ĠBur ke
vol ume
Ġslic es
G C
M a
s afe
Ġcent imeters
Ġ0 4
ĠHar vey
Ġfear ful
bl ind
Ġhunt ed
ĠIP CC
ĠRest oration
ĠCra ig
Ġcommemor ate
× ľ
Ġh ints
ass y
Ġqu o
Ġcar riage
ĠGen er
ĠGl as
Ġdecl aring
Ġcommunic ated
ĠAng lic
Ġrestrict ive
Ġassert ed
ĠVacc ine
Ġhib ern
ay ed
ĠM M
Ġman gan
Ġdes erts
Ġprogram mers
Ġreact s
ĠApp alach
Ġcook ie
Te aching
Ġbio fuels
educ ation
ĠHind us
ĠChair man
ot ism
ĠW elling
ĠW OR
ĠGe or
Ġorigin ates
Ġrat ified
ĠConf uc
ĠExper t
Ġsport ing
ĠWars aw
ĠCertain ly
Ġchol era
rais al
E p
e ing
Ġt ides
ĠW ing
ĠN ash
Ġpl edge
Ġactiv ism
Ġret ains
Ġ17 76
Ġpast oral
Ġlone ly
ĠSalv ador
Ġp ores
Ġp ension
ad al
Ġwh is
lect ions
Ġsimpl ify
Ġmorph ological
at ible
ĠRe formation
ĠAn swers
Ġsum mers
flow ers
Ġneur onal
Pr int
ĠTheod ore
Ä ĵ
Ġl obe
ĠT CP
se ctions
ĠS olution
os ocial
Ġam munition
ĠMar tha
ĠTr ial
sec ure
Ġcalcul us
met ics
ĠÃ ł
ĠIraq i
Ġcareg iver
r ights
Ġf ried
ĠC AD
Ġun real
ĠAn al
ĠCur iosity
Ġric her
ĠMun ich
Ġtransg ender
t hens
Ġw ines
Ġde let
os ome
pp e
ĠJ ar
ĠV ik
ĠSp ot
ĠZ en
Ġut most
Ġtrigger ing
Ġhes itate
Ġbl isters
ins p
ĠRe ed
Ġsun shine
Ġjo ins
Ġsn ails
Ġsurround s
Ġattract s
Ġconscious ly
Ġthe olog
ĠH V
ib ia
ĠPro du
Ġant is
ĠGovern ments
Ġâ Ī
ĠTem perature
inn ati
Ġexcav ations
Ġlegitim acy
Ġanomal ies
C ost
ren ches
Ġcur v
Ġmem oir
Ġrid ges
ĠM all
ĠIn form
Ġinf amous
Ġmed iated
Ġindic ative
Ġhost ility
ĠCare er
Ġscript ure
Ġic ons
Ġincub ation
F ore
Ġf eces
ĠC ob
Ġsp aced
Ġdem ise
urch ase
ĠCar n
ĠDisc over
Ġdepart ed
Ġcompress or
ĠB ond
iz arre
so il
av al
Ġprom inence
Ġhyp ers
ĠStat istical
ĠLGBT Q
Ġs inking
Ġb rowse
Ġpl acent
ĠTh an
Ġstat utes
Sp anish
Ġuns ure
ĠDiff erence
gener ated
Ġdict ators
ĠBol ivia
ĠLED s
W elcome
a vers
Ð ¿
Ġen cephal
ec a
erm ost
ram a
ĠDe af
oph obia
ĠCoun sel
Ġprepared ness
Ġmillenn ia
ĠC B
ad an
ĠW onder
ĠV inc
Ġflow n
Ġwat ches
Ġpilgrim age
Ġunh appy
us ch
ĠW ave
Ġim plicated
Ġdi ode
Ġsil ica
Ġrenew al
Ġvag ina
== ==
Less on
> .
V E
in form
Ġst ark
ĠV ic
Ġro de
ract s
Ġmet rics
Ġpoll inators
ĠSch w
Ġinhib ition
Comp uter
Ġbrows ing
ĠBu y
á¹ ĩ
Ġalleged ly
en ia
Ġb ourgeois
ur ized
Ġr ites
ost ics
Ġlar val
Ġ10 9
Ġsuper v
ĠEm ma
Ġwa ited
ĠBar on
Ġbath ing
Ġresc ued
Ġloose ly
Hen ry
ad vert
us ers
Ġwe aving
Ġle m
Ġimp ressions
Ġgr as
18 0
Ġconsum es
Ġappl iance
ĠStep s
riz es
Bas ic
u itary
ĠF ear
ĠRout ledge
P o
P acific
Ġd ash
ĠS hen
Ġflu ency
ĠCal vin
Ġdom ination
Ġdecl ares
Ġdisp osition
Ġtit anium
Ġflour ished
ĠDiam ond
s ince
Ġ vern
Ġt asty
Ġre de
ĠS aul
oc ations
Ġdiff use
AT H
Ġapprent ices
f if
g un
Ġp soriasis
im an
ĠS ultan
od erm
Ġstat istic
Ġfr ank
Ġple asing
Ġreward ed
ĠMult i
F ederal
N ature
Ï Ģ
ing ling
os hi
ĠG un
Ġsc av
Ġfe udal
ey e
Ġprosec ution
Ġenthusi asts
represent ed
Ġb og
Ġd y
Ġde ities
ĠB PA
ĠH iro
ĠH abitat
Ġgra ding
ĠEn lightenment
ĠSupp lement
Ġlymph oma
ĠFried rich
ĠJoy ce
I ll
L ocation
ĠT ag
Ġst agger
em is
ĠF ergus
Ġmod ifying
Ġfact ual
Ġfisher y
Ġintu ition
L eg
Ġm alf
Ġst a
Ġor thodox
Ġwas ting
ĠO ptions
ĠEx c
ĠFr an
Ġnoteb ook
g rand
m onds
Ġis chem
Ġ( -
ons ored
ef it
Ġgra phen
lu ence
Ġcontact ed
CS E
Ġisot opes
o que
al ong
le ad
Ġl anes
Ġrel ational
Ġill umin
ĠAb ove
Ġattack er
ĠEd mund
Ġprep ares
Ġdefect ive
Ġdisrupt ive
Ġrect angle
Ġtutor ials
ĠBrist ol
Ġindispens able
Ġtop ography
ĠWhen ever
St at
Ġfarm land
Ġsand stone
Ġbread th
Ġmira cul
c ig
f igure
ĠM ann
Ġne p
ĠF M
ĠF ou
Ġtra des
Ġcur rencies
Ġinstit uted
Ġvolunt arily
Ġkn ots
c hemical
Ġp unch
ĠH erald
un it
Ġun le
Ġag ro
Ġpartic ulate
ik ed
ĠUS S
sh ort
Ġviol ate
Ġaster oids
C ell
al us
Ġb un
ect ive
Ġun expl
Ġver d
Ġpref ers
ĠLeg ion
Ġsole mn
Ġexagger ated
Ġgraphen e
Ġb inge
Ġr ally
ĠL an
Ġper imeter
Ġswe ep
Ġkid n
Ġpron ounce
osaur us
N eed
Ġc act
Ġin act
ĠT oy
ay as
Ġit chy
Ġ- >
ĠAl ph
ĠRe lease
Ġkey words
Ġinsect icide
Ġgrass lands
Ġ185 1
ĠPot ter
Ġfo il
T ips
ĠP ars
ore xia
In vest
Ġtechn ician
ner g
Ġdoct rines
Ġfire works
Ġhyd rated
ĠSym bol
ĠRen ewable
Public ation
ĠPharm ac
Ġencrypt ed
w art
ch us
Ġsu icidal
ĠK et
Ġinter rog
Ġsam pled
rec ogn
Ġcontract or
ptom atic
ĠIdent ification
Ġorn ament
ĠCheroke e
R est
ĠRe in
ĠEd en
Ġ186 9
ĠSand y
ĠGuatemal a
ur ban
em ann
ĠL iber
Ġk ale
ident ified
Ġsust aining
Ġcoord inator
ĠBur ma
Ġmold s
conf idence
ĠLud wig
ĠJenn ifer
E r
m ate
ra ising
ĠH i
ĠH ugh
Ġpol io
Ġmult ic
Ġhor rible
ĠSch olars
Ġcircumst ance
Ġanalog ous
Ġdisput ed
ĠZe us
Ġplag iarism
Ġafore mentioned
H and
Ġ æ
ad oes
Ġcomm enced
ĠV oy
Ġmet amorph
rodu ctive
Ġpost p
bo ats
ĠGl ac
ĠMus cle
Ġmid w
Ġtrou bled
Ġpret end
gu ided
Ġsubs istence
Ġdisse mination
ipel ago
Ġa ra
Ġo we
Ġre app
ĠD S
Ġout dated
ĠK aren
Ġadd icted
orn ed
Ġey eb
ĠBo ys
thern et
ĠMad rid
Ġwithd rew
ĠGab riel
Ġspaw ning
N ative
he y
ĠS r
ĠH appy
ĠW ritten
Ġpre view
Ġco operate
Ġcontrast ing
cel ain
Ġprofound ly
Ġbell s
ĠLl oyd
ĠT almud
ĠA ry
ĠP ere
per formance
Ġrun ners
pro tein
abet ics
alle l
Ġconvey ed
pub lished
ĠOri ental
ĠBlu etooth
A round
he ro
es cent
Ġle x
ĠJ A
Ġco aching
Ġpers ists
Ġcelebr ates
W ik
p ersonal
Ġst ern
ĠM ills
Ġra ids
lect ive
Ġair ways
Ġbrain storm
ĠDist ribution
Ã¶ r
Ġstraw berries
Ġdisin teg
Ġpropri etary
Ġmathematic ian
m ult
if ug
ĠL aser
ok er
ob last
Ġconf ine
Ġfasc inated
Ġspray ing
Ġspark ed
ĠTes la
ol an
ĠH aven
Ġref using
Ġimm inent
Ġpack ing
Ġcoast s
ĠArch bishop
Ġunf old
ĠMart ian
Ġ188 4
Ġadm ire
Ġconstra ined
ĠTob acco
C reating
Ġo h
is se
ĠW iley
Ġ2 30
Ġen for
ĠCh at
Ġcult ured
Ġbott led
Ġmos que
ĠScript ures
ĠSher man
B ul
k ens
z ep
16 0
ĠEm ily
Ġmic ron
Ġscat tering
t rue
ĠB I
Ġdise ased
Ġbi otechnology
Ġgr ind
Ġchem ist
Ġcrack ed
Ġalb um
Ġcher ry
Ben efits
Ġwip ed
F und
Ġm oths
Ġe ject
Ġen se
Ġtw isted
Ġcar c
Ġexcess ively
t ub
Ġr inse
ĠF O
ace ans
Ġrep ay
ck er
Ġexped itions
ĠDiet ary
Ġbench mark
Ġerad icate
Ġmangan ese
F I
h aw
Î º
Ġa verages
Ġp ri
Ġch in
Ġover coming
ĠCol ony
ĠMar riage
Ġ188 3
Ġimper fect
B rown
ig ator
ĠP ink
ĠJ obs
Ġaut ob
Ġhand ic
Ġdiss ip
Ġtermin als
opter a
Ġirrevers ible
c ock
Ġc ute
Ġr iders
Ġjo ke
Ġantib acterial
Ġtract s
Ġtom bs
Ġquot ation
L ou
Ġt a
ĠB one
Ġres igned
rit ic
Ġfore nsic
Ġsing er
ĠDirect ory
Ġhero in
Ġmanif ested
Ġadverse ly
Ġpod s
ĠPow ers
ĠChes apeake
ep h
ph is
Ġpr ud
man uel
ĠInter view
ĠSer bia
Ġ185 4
ĠEqu ipment
Ġtoile ts
ĠAccording ly
ĠNor se
she ll
ĠClar ke
Q ue
h ab
Ġn ar
ra ines
Ġst ellar
Ġas hes
cent ral
Ġtem plates
ĠQ ual
Ġnational ist
ĠAc ross
Te achers
ĠPo etry
Ġtor que
Ġdraft ed
Ġincap able
W E
ve ment
ĠN est
Ġpe asant
Ġag r
Ġhand writing
Ġtransform er
ĠEr nest
ĠQuarter ly
clin ical
w hether
ĠS I
Ġstate wide
Ġinvest or
amb a
ĠPow ell
ĠI EEE
ĠF uel
Ġpl ent
ĠO P
Ġsign ifies
ĠPres byter
En ter
ĠEqu al
ĠVen et
Ġrheumat oid
Ġvertebra e
Ġt ric
on aut
ĠT ony
ĠM ons
Ġfound ational
Ġfix ing
Ġamb ig
Ġles ion
ĠSac red
ĠGro ve
ĠInfect ious
10 6
Ġdem ocr
Ġstress ors
vant ages
Ġoccup ies
ĠInst agram
Ġadvis or
b ly
c ert
ĠC SS
Ġpl asm
Ġsc andal
ĠK un
ann i
ID E
ON E
Ġexperiment ing
ĠC lement
ĠB ac
ĠN g
Ġen listed
Ġup side
Ġreg isters
Ġest ates
Ġpoly morph
Ġshell fish
Ġsupplement al
ĠDiagn osis
u ber
at tered
Ġd ich
Ġre nov
st at
ĠN ak
ĠCh ang
Ġrec urrence
Ġwild fires
Ġcompet itions
Ġrout ing
pur pose
k an
ic c
Ġimp lements
Ġbo ots
10 9
Ġcal ves
do ctoral
Ġcarcin oma
ĠRout e
Ġsynthes ized
Cho ose
P rop
â ĸ
ĠC BS
Ġac ron
ax y
ĠTr in
ĠCont emporary
Ġtend ons
ĠInst all
Ġsan ction
Ġfer mented
Ġacknowled ges
N D
d ad
in atory
Ġf ern
st ery
ĠA ging
ĠS Y
ĠM Hz
ĠBut ler
Ġadv ises
ĠRep eat
rolog ical
Ġcleans ing
ĠCoff ee
b n
Ġplan k
Ġheart beat
Ġkil ograms
Te chnology
ĠYug oslav
Ġdiaphrag m
ĠCh al
Ġac hes
Ġgu inea
Ġsuper st
Ġfamous ly
ST EM
[...]
